#ifndef MODEL_DATA_H
#define MODEL_DATA_H

// Model quantized with INT8
const unsigned char model_tflite[] = {
  0x20, 0x00, 0x00, 0x00, 0x54, 0x46, 0x4c, 0x33, 0x00, 0x00, 0x00, 0x00, 
  0x14, 0x00, 0x20, 0x00, 0x1c, 0x00, 0x18, 0x00, 0x14, 0x00, 0x10, 0x00, 
  0x0c, 0x00, 0x00, 0x00, 0x08, 0x00, 0x04, 0x00, 0x14, 0x00, 0x00, 0x00, 
  0x1c, 0x00, 0x00, 0x00, 0x88, 0x00, 0x00, 0x00, 0xe0, 0x00, 0x00, 0x00, 
  0x70, 0x0f, 0x00, 0x00, 0x80, 0x0f, 0x00, 0x00, 0xec, 0x35, 0x00, 0x00, 
  0x03, 0x00, 0x00, 0x00, 0x01, 0x00, 0x00, 0x00, 0x04, 0x00, 0x00, 0x00, 
  0x8e, 0xed, 0xff, 0xff, 0x0c, 0x00, 0x00, 0x00, 0x1c, 0x00, 0x00, 0x00, 
  0x3c, 0x00, 0x00, 0x00, 0x0f, 0x00, 0x00, 0x00, 0x73, 0x65, 0x72, 0x76, 
  0x69, 0x6e, 0x67, 0x5f, 0x64, 0x65, 0x66, 0x61, 0x75, 0x6c, 0x74, 0x00, 
  0x01, 0x00, 0x00, 0x00, 0x04, 0x00, 0x00, 0x00, 0x94, 0xff, 0xff, 0xff, 
  0x1b, 0x00, 0x00, 0x00, 0x04, 0x00, 0x00, 0x00, 0x08, 0x00, 0x00, 0x00, 
  0x6f, 0x75, 0x74, 0x70, 0x75, 0x74, 0x5f, 0x30, 0x00, 0x00, 0x00, 0x00, 
  0x01, 0x00, 0x00, 0x00, 0x04, 0x00, 0x00, 0x00, 0x4e, 0xf0, 0xff, 0xff, 
  0x04, 0x00, 0x00, 0x00, 0x0b, 0x00, 0x00, 0x00, 0x69, 0x6e, 0x70, 0x75, 
  0x74, 0x5f, 0x6c, 0x61, 0x79, 0x65, 0x72, 0x00, 0x02, 0x00, 0x00, 0x00, 
  0x34, 0x00, 0x00, 0x00, 0x04, 0x00, 0x00, 0x00, 0xdc, 0xff, 0xff, 0xff, 
  0x1e, 0x00, 0x00, 0x00, 0x04, 0x00, 0x00, 0x00, 0x13, 0x00, 0x00, 0x00, 
  0x43, 0x4f, 0x4e, 0x56, 0x45, 0x52, 0x53, 0x49, 0x4f, 0x4e, 0x5f, 0x4d, 
  0x45, 0x54, 0x41, 0x44, 0x41, 0x54, 0x41, 0x00, 0x08, 0x00, 0x0c, 0x00, 
  0x08, 0x00, 0x04, 0x00, 0x08, 0x00, 0x00, 0x00, 0x1d, 0x00, 0x00, 0x00, 
  0x04, 0x00, 0x00, 0x00, 0x13, 0x00, 0x00, 0x00, 0x6d, 0x69, 0x6e, 0x5f, 
  0x72, 0x75, 0x6e, 0x74, 0x69, 0x6d, 0x65, 0x5f, 0x76, 0x65, 0x72, 0x73, 
  0x69, 0x6f, 0x6e, 0x00, 0x1f, 0x00, 0x00, 0x00, 0x8c, 0x0e, 0x00, 0x00, 
  0x84, 0x0e, 0x00, 0x00, 0x70, 0x0e, 0x00, 0x00, 0x54, 0x0e, 0x00, 0x00, 
  0x40, 0x0e, 0x00, 0x00, 0x24, 0x0e, 0x00, 0x00, 0xfc, 0x0d, 0x00, 0x00, 
  0x2c, 0x0d, 0x00, 0x00, 0x9c, 0x0c, 0x00, 0x00, 0x8c, 0x08, 0x00, 0x00, 
  0xfc, 0x07, 0x00, 0x00, 0x4c, 0x07, 0x00, 0x00, 0xbc, 0x06, 0x00, 0x00, 
  0x0c, 0x01, 0x00, 0x00, 0x04, 0x01, 0x00, 0x00, 0xfc, 0x00, 0x00, 0x00, 
  0xf4, 0x00, 0x00, 0x00, 0xec, 0x00, 0x00, 0x00, 0xe4, 0x00, 0x00, 0x00, 
  0xdc, 0x00, 0x00, 0x00, 0xd4, 0x00, 0x00, 0x00, 0xcc, 0x00, 0x00, 0x00, 
  0xc4, 0x00, 0x00, 0x00, 0xbc, 0x00, 0x00, 0x00, 0xb4, 0x00, 0x00, 0x00, 
  0xac, 0x00, 0x00, 0x00, 0xa4, 0x00, 0x00, 0x00, 0x9c, 0x00, 0x00, 0x00, 
  0x94, 0x00, 0x00, 0x00, 0x74, 0x00, 0x00, 0x00, 0x04, 0x00, 0x00, 0x00, 
  0x42, 0xf1, 0xff, 0xff, 0x04, 0x00, 0x00, 0x00, 0x60, 0x00, 0x00, 0x00, 
  0x0c, 0x00, 0x00, 0x00, 0x08, 0x00, 0x0e, 0x00, 0x08, 0x00, 0x04, 0x00, 
  0x08, 0x00, 0x00, 0x00, 0x10, 0x00, 0x00, 0x00, 0x28, 0x00, 0x00, 0x00, 
  0x00, 0x00, 0x06, 0x00, 0x08, 0x00, 0x04, 0x00, 0x06, 0x00, 0x00, 0x00, 
  0x04, 0x00, 0x00, 0x00, 0x01, 0x00, 0x00, 0x00, 0xeb, 0x03, 0x00, 0x00, 
  0x0c, 0x00, 0x18, 0x00, 0x14, 0x00, 0x10, 0x00, 0x0c, 0x00, 0x04, 0x00, 
  0x0c, 0x00, 0x00, 0x00, 0x10, 0xd7, 0x7e, 0xbc, 0xa2, 0xf6, 0x8c, 0xed, 
  0x02, 0x00, 0x00, 0x00, 0x02, 0x00, 0x00, 0x00, 0x04, 0x00, 0x00, 0x00, 
  0x06, 0x00, 0x00, 0x00, 0x32, 0x2e, 0x32, 0x31, 0x2e, 0x30, 0x00, 0x00, 
  0xae, 0xf1, 0xff, 0xff, 0x04, 0x00, 0x00, 0x00, 0x10, 0x00, 0x00, 0x00, 
  0x31, 0x2e, 0x31, 0x34, 0x2e, 0x30, 0x00, 0x00, 0x00, 0x00, 0x00, 0x00, 
  0x00, 0x00, 0x00, 0x00, 0xb8, 0xcc, 0xff, 0xff, 0xbc, 0xcc, 0xff, 0xff, 
  0xc0, 0xcc, 0xff, 0xff, 0xc4, 0xcc, 0xff, 0xff, 0xc8, 0xcc, 0xff, 0xff, 
  0xcc, 0xcc, 0xff, 0xff, 0xd0, 0xcc, 0xff, 0xff, 0xd4, 0xcc, 0xff, 0xff, 
  0xd8, 0xcc, 0xff, 0xff, 0xdc, 0xcc, 0xff, 0xff, 0xe0, 0xcc, 0xff, 0xff, 
  0xe4, 0xcc, 0xff, 0xff, 0xe8, 0xcc, 0xff, 0xff, 0xec, 0xcc, 0xff, 0xff, 
  0xf0, 0xcc, 0xff, 0xff, 0x06, 0xf2, 0xff, 0xff, 0x04, 0x00, 0x00, 0x00, 
  0xa0, 0x05, 0x00, 0x00, 0xc1, 0xc2, 0xe5, 0xbf, 0xca, 0x22, 0xde, 0x19, 
  0xbd, 0xdd, 0x05, 0xb3, 0x36, 0x2a, 0x56, 0x2c, 0xfb, 0xa3, 0x81, 0x52, 
  0xd9, 0xdd, 0x87, 0x15, 0x54, 0xe5, 0xb6, 0x8c, 0xe7, 0xea, 0xe3, 0x92, 
  0xbb, 0xd6, 0x3c, 0x2d, 0xc3, 0x5b, 0x13, 0x36, 0xf9, 0x3e, 0xe2, 0xca, 
  0xcb, 0x54, 0x06, 0x7f, 0x39, 0x2b, 0xbe, 0x00, 0xcd, 0xd1, 0x42, 0xee, 
  0xee, 0xcc, 0xb2, 0x0a, 0x0f, 0x01, 0xa1, 0x45, 0x34, 0x3d, 0x32, 0x0a, 
  0xf0, 0xf4, 0x22, 0x3f, 0xa5, 0xfc, 0xf7, 0x16, 0x00, 0xf6, 0xfd, 0x13, 
  0x10, 0x93, 0x2f, 0x13, 0x21, 0x2f, 0x59, 0x21, 0xb4, 0x29, 0x10, 0xf6, 
  0x28, 0xea, 0x4c, 0xcb, 0x1c, 0x10, 0x3b, 0xef, 0x1a, 0xe1, 0x38, 0xc7, 
  0xa9, 0xe6, 0x26, 0xb0, 0xcd, 0x0a, 0x18, 0xd4, 0x07, 0x92, 0x0c, 0x1a, 
  0x26, 0x03, 0xe9, 0x36, 0xf1, 0x2b, 0x95, 0xea, 0x1e, 0xd1, 0x0b, 0xdd, 
  0xcd, 0xdc, 0x35, 0x81, 0x03, 0x11, 0x16, 0x0c, 0x32, 0x03, 0x19, 0xdf, 
  0xbc, 0xc6, 0x8c, 0xc4, 0x66, 0xbc, 0xbb, 0x6d, 0x99, 0xdc, 0x15, 0xd0, 
  0xe4, 0x38, 0x41, 0x98, 0x36, 0xed, 0xf4, 0xf5, 0xed, 0xea, 0xc6, 0x3d, 
  0x95, 0xd1, 0x81, 0x09, 0x93, 0x51, 0xb4, 0x89, 0x19, 0xc9, 0xfc, 0xfe, 
  0x77, 0x30, 0x9e, 0x0a, 0x1e, 0xbc, 0xa6, 0x81, 0x44, 0x42, 0x30, 0xb8, 
  0xb6, 0x08, 0x75, 0x4a, 0x0e, 0xa6, 0xa6, 0xcf, 0xce, 0x0e, 0xbf, 0x03, 
  0x33, 0x8a, 0xad, 0xf4, 0xe0, 0x68, 0xc1, 0xbe, 0xf3, 0x1a, 0x81, 0x08, 
  0xec, 0x20, 0x17, 0x44, 0x55, 0xf9, 0x1d, 0xa9, 0x46, 0xb7, 0x44, 0xae, 
  0xf5, 0xe6, 0xe1, 0x25, 0x28, 0xe8, 0xf8, 0xfb, 0xab, 0xb9, 0xdc, 0x0c, 
  0xeb, 0xce, 0xf7, 0x39, 0xbf, 0x29, 0xfd, 0xa7, 0x11, 0x09, 0x14, 0xd3, 
  0xc0, 0x2a, 0xd0, 0xb1, 0xdb, 0xf2, 0xcb, 0x13, 0x22, 0x27, 0xfc, 0xdf, 
  0xcf, 0x57, 0x1b, 0xf6, 0xe1, 0x26, 0xd7, 0xdc, 0xf5, 0x81, 0x25, 0xc6, 
  0xd9, 0x0a, 0x14, 0xc8, 0xae, 0x42, 0x41, 0x54, 0x0e, 0x05, 0xa2, 0xfc, 
  0xc5, 0x88, 0x0d, 0xdb, 0x2d, 0x1f, 0xdf, 0x4d, 0x2e, 0x23, 0xdc, 0xb7, 
  0xec, 0x61, 0xdb, 0xcb, 0x4b, 0x6b, 0x44, 0x91, 0x41, 0x75, 0x3b, 0x01, 
  0xd1, 0x75, 0x42, 0xc7, 0xb6, 0x81, 0xdb, 0xb6, 0x2a, 0x15, 0xf8, 0xf6, 
  0x02, 0xd6, 0x5d, 0xc3, 0xd3, 0xf9, 0xdf, 0xd0, 0x17, 0x5d, 0x31, 0xe7, 
  0xad, 0xee, 0xf4, 0x4f, 0xb6, 0x4b, 0xb6, 0x45, 0x55, 0xe6, 0x25, 0x61, 
  0x56, 0x2b, 0x1c, 0x4c, 0xd9, 0xde, 0x11, 0x3d, 0x5a, 0x7f, 0x18, 0x4b, 
  0xda, 0xf6, 0x4c, 0xf9, 0x5a, 0xaa, 0xf7, 0xe0, 0x4e, 0x5e, 0xdf, 0x04, 
  0xd0, 0x16, 0x1f, 0x22, 0x56, 0x21, 0x44, 0xfa, 0xbe, 0x0b, 0x62, 0xf8, 
  0x47, 0xfd, 0x55, 0xd5, 0xe9, 0xed, 0x12, 0xd3, 0x81, 0xa7, 0x2c, 0xe7, 
  0x70, 0x32, 0xf0, 0xe1, 0x0c, 0xcf, 0x64, 0xbe, 0x31, 0x65, 0x3a, 0xa8, 
  0xf5, 0x11, 0x09, 0xd2, 0x2a, 0x12, 0xcc, 0xd6, 0x43, 0xa2, 0x0b, 0x2e, 
  0xe1, 0x52, 0xda, 0x24, 0xcc, 0xef, 0xd9, 0xf4, 0x98, 0x2d, 0x51, 0xc1, 
  0x6c, 0xf3, 0x16, 0x0e, 0x1e, 0x38, 0xf3, 0x00, 0x0d, 0xc4, 0xa9, 0xd9, 
  0xc1, 0xeb, 0x20, 0x2e, 0x7f, 0xc8, 0xdf, 0xb9, 0x12, 0xe5, 0x1a, 0x00, 
  0x11, 0x11, 0xfa, 0x7f, 0xb6, 0xb7, 0x1e, 0xb7, 0xf9, 0x0a, 0x2e, 0xc7, 
  0xe8, 0x18, 0x0b, 0x19, 0x3e, 0x1e, 0xf1, 0x0f, 0x33, 0x7a, 0xd1, 0x37, 
  0x22, 0xb9, 0xc9, 0x23, 0xf2, 0x59, 0x15, 0x1c, 0xcd, 0xe4, 0x47, 0x08, 
  0xf5, 0x50, 0x57, 0x0c, 0xce, 0x08, 0xa0, 0x91, 0x46, 0x0a, 0xd0, 0x0f, 
  0x0f, 0xe5, 0xea, 0x26, 0x8b, 0x7f, 0xf3, 0x07, 0xe3, 0x15, 0xe1, 0x0e, 
  0xda, 0xcb, 0x5f, 0x2e, 0xf8, 0x53, 0xf2, 0xe1, 0x16, 0xfa, 0xb4, 0x69, 
  0x2e, 0xf1, 0x0f, 0xe7, 0x37, 0xc5, 0xeb, 0xe2, 0x46, 0x11, 0x30, 0xbf, 
  0x13, 0x65, 0xe6, 0x1c, 0x5e, 0x81, 0x05, 0xc2, 0x1f, 0x8e, 0x0a, 0xed, 
  0x11, 0x3c, 0x04, 0xee, 0xdf, 0x4e, 0xd9, 0xc0, 0xa8, 0x1a, 0x14, 0x05, 
  0x67, 0xa3, 0x46, 0x3d, 0x25, 0x0d, 0x36, 0x0a, 0x39, 0xec, 0x20, 0xe2, 
  0x9e, 0x34, 0x3c, 0x28, 0x91, 0x44, 0xab, 0x00, 0xda, 0xbb, 0x1b, 0xda, 
  0xd7, 0x17, 0xf1, 0x96, 0xb8, 0xed, 0x10, 0x9a, 0x9c, 0x1a, 0xab, 0xad, 
  0x1c, 0x43, 0xed, 0x48, 0x0f, 0x7f, 0xd5, 0x1e, 0x1c, 0x32, 0x1a, 0x1e, 
  0x57, 0x3b, 0x06, 0x1e, 0x96, 0x0c, 0x32, 0x36, 0x03, 0xd2, 0x4e, 0x35, 
  0x02, 0xa1, 0x65, 0xc9, 0xa0, 0x40, 0xa1, 0xbf, 0x96, 0xed, 0xb7, 0x68, 
  0xc7, 0xf1, 0x03, 0xd9, 0xfe, 0xb4, 0x5f, 0xf9, 0x47, 0x7f, 0x40, 0xc0, 
  0x3f, 0xe8, 0x13, 0x0b, 0x3f, 0xd3, 0x0f, 0x55, 0x6a, 0x1f, 0xe3, 0x16, 
  0xfa, 0x4b, 0xd0, 0x7e, 0xee, 0xdb, 0xdf, 0xbc, 0xd3, 0x29, 0xff, 0xb5, 
  0xfe, 0x37, 0xfd, 0x18, 0x11, 0x3a, 0x32, 0xd7, 0xc8, 0x40, 0xea, 0xe0, 
  0xad, 0x35, 0x36, 0x7f, 0xc1, 0x21, 0xcf, 0x4f, 0x15, 0xc8, 0x10, 0xfe, 
  0x37, 0xe1, 0x05, 0xe6, 0xe2, 0x39, 0xee, 0xc7, 0x35, 0x68, 0x2b, 0xc7, 
  0xea, 0x2c, 0x43, 0x0c, 0x4c, 0xd6, 0x33, 0xda, 0x35, 0x1b, 0x3f, 0x3e, 
  0xb5, 0x37, 0xf5, 0x4d, 0x78, 0xdd, 0x7f, 0xd6, 0x44, 0xb6, 0xe0, 0x51, 
  0xe1, 0x1f, 0x89, 0x0e, 0x9d, 0x97, 0x31, 0xd5, 0x31, 0x3f, 0x1a, 0x12, 
  0x3e, 0xbd, 0xe9, 0x3b, 0x48, 0x15, 0xf1, 0x34, 0xb7, 0xd3, 0xa9, 0x9b, 
  0xe3, 0x64, 0x32, 0x60, 0x12, 0x17, 0x86, 0xed, 0xc9, 0x2e, 0x6e, 0x04, 
  0x49, 0x0b, 0x3d, 0x4b, 0xa6, 0xa7, 0xe6, 0xc5, 0xd1, 0x33, 0x0c, 0x2a, 
  0x24, 0xb1, 0x0f, 0x26, 0xf2, 0x2c, 0xd2, 0xe5, 0x4f, 0xef, 0x2f, 0x33, 
  0xce, 0x01, 0xd8, 0x29, 0x81, 0xb1, 0x23, 0xd1, 0x3a, 0x37, 0x07, 0x3d, 
  0xdc, 0xe2, 0x05, 0xa6, 0x18, 0x1b, 0x3b, 0x11, 0x28, 0xe0, 0xc8, 0xa7, 
  0xd1, 0x1d, 0xcd, 0x38, 0xc7, 0xc4, 0x81, 0xe0, 0x46, 0xe8, 0x72, 0xfb, 
  0x2d, 0x09, 0x2f, 0x24, 0x45, 0xe1, 0xd2, 0xff, 0xf2, 0xbf, 0xc6, 0xca, 
  0x95, 0xed, 0x24, 0x2e, 0x53, 0xe6, 0x9d, 0xff, 0xf7, 0x12, 0x39, 0x12, 
  0x43, 0x70, 0xdb, 0xc0, 0x15, 0x54, 0xde, 0x4a, 0xc8, 0xe6, 0x3a, 0x3b, 
  0x13, 0xdb, 0xce, 0xe4, 0x24, 0xd7, 0xf5, 0xb8, 0x55, 0xf4, 0xbe, 0xfd, 
  0xf3, 0xfe, 0x95, 0xbb, 0x95, 0xf4, 0xe8, 0x32, 0x0c, 0xc8, 0x9e, 0xf2, 
  0xce, 0xab, 0x11, 0xf5, 0x12, 0xe5, 0xb6, 0xfc, 0xb5, 0xbd, 0x81, 0xe2, 
  0x33, 0x21, 0x0a, 0x17, 0x64, 0xc8, 0x81, 0xfb, 0x94, 0x51, 0x40, 0xf7, 
  0x0b, 0xb3, 0x60, 0xfe, 0xce, 0x36, 0x05, 0xd9, 0x9b, 0x46, 0x03, 0x03, 
  0x37, 0xcc, 0x40, 0x65, 0x06, 0x4d, 0xd9, 0xb1, 0xbe, 0x1d, 0x57, 0xf4, 
  0x46, 0x3c, 0xea, 0xb5, 0x19, 0x48, 0xf3, 0x0e, 0x21, 0x0e, 0xcd, 0x30, 
  0x3f, 0x28, 0x8b, 0xc7, 0x32, 0x12, 0x5e, 0x23, 0xe6, 0xbd, 0xe0, 0x4a, 
  0xec, 0x7f, 0x39, 0xa5, 0x27, 0x22, 0x79, 0xf4, 0x96, 0xda, 0xbb, 0x72, 
  0x44, 0xb9, 0xa3, 0xd2, 0x2f, 0xfe, 0xf8, 0x29, 0x6c, 0xa8, 0x05, 0x2f, 
  0xd3, 0x25, 0xcf, 0x2e, 0x1c, 0x3f, 0x49, 0x50, 0xc6, 0xd6, 0x35, 0xda, 
  0x34, 0xab, 0x02, 0x16, 0x17, 0x37, 0x22, 0xc1, 0x09, 0x14, 0xf9, 0x81, 
  0x2b, 0x4f, 0x00, 0x33, 0x23, 0xff, 0x47, 0x20, 0x98, 0x25, 0xa5, 0xee, 
  0xef, 0xb7, 0x30, 0xb4, 0x0e, 0x0e, 0xa4, 0x33, 0xfa, 0x2a, 0xdf, 0x08, 
  0xc9, 0x1e, 0xb3, 0x14, 0x0d, 0x4c, 0xc0, 0x90, 0x2c, 0xee, 0xb8, 0xf5, 
  0xe6, 0xd6, 0xdb, 0x02, 0x26, 0xd5, 0x14, 0x5c, 0x05, 0x5f, 0x07, 0xf8, 
  0xe1, 0xdf, 0xf5, 0xc6, 0x7f, 0x25, 0x4d, 0x2d, 0xdc, 0xd1, 0x0c, 0xe0, 
  0x16, 0x68, 0x20, 0x07, 0xe1, 0xee, 0x0b, 0x48, 0xe4, 0xf8, 0x47, 0xfe, 
  0x03, 0xdb, 0x50, 0xb6, 0xd6, 0x3e, 0xb8, 0xac, 0x12, 0x1c, 0x0a, 0xf1, 
  0xd4, 0x20, 0xb6, 0xd9, 0x3a, 0xd5, 0x01, 0xe1, 0xeb, 0xd3, 0x1c, 0x1c, 
  0x49, 0x15, 0x3a, 0xfa, 0x33, 0xa5, 0xe2, 0x81, 0xfd, 0x2a, 0xc5, 0xe1, 
  0xc3, 0x59, 0x02, 0xa9, 0xe3, 0x26, 0x15, 0x9c, 0x15, 0xdf, 0xe6, 0xd1, 
  0x02, 0xc7, 0x3f, 0x48, 0xe9, 0x5c, 0x29, 0x09, 0xcf, 0x7f, 0x51, 0x6c, 
  0xe2, 0x39, 0x71, 0xc9, 0xc9, 0x14, 0x36, 0x65, 0x4f, 0x10, 0x51, 0xec, 
  0x21, 0x1f, 0xc4, 0xd1, 0x69, 0x74, 0x3d, 0xf7, 0x25, 0xa3, 0x00, 0x07, 
  0x88, 0x26, 0xfc, 0xe1, 0x59, 0xb7, 0xb5, 0x3c, 0xc7, 0xab, 0xb5, 0x76, 
  0x7f, 0x29, 0xf6, 0x3b, 0x11, 0xe7, 0xf1, 0xe4, 0x18, 0xf7, 0xce, 0xc6, 
  0x00, 0x66, 0xf8, 0xfa, 0x12, 0xd7, 0x51, 0xc0, 0x3f, 0xf1, 0x3f, 0xff, 
  0x3b, 0xad, 0x38, 0xf5, 0xb8, 0x04, 0xab, 0xc7, 0x38, 0x00, 0xbc, 0x37, 
  0xf7, 0xc8, 0xe0, 0xc7, 0xbd, 0xd1, 0x40, 0xd4, 0x5a, 0xb2, 0x1f, 0x95, 
  0xc7, 0x02, 0x01, 0x2b, 0x04, 0x22, 0xc3, 0xc3, 0x81, 0x54, 0x48, 0xad, 
  0x0d, 0xc1, 0x22, 0x1a, 0xea, 0xd2, 0xb4, 0xc2, 0x3f, 0xc1, 0x39, 0xfa, 
  0x42, 0x0f, 0x82, 0xfa, 0x37, 0xe3, 0x55, 0x2c, 0x4b, 0x3e, 0xef, 0xe0, 
  0xd8, 0xf3, 0x08, 0xf5, 0x04, 0x6f, 0xb6, 0x78, 0x43, 0x22, 0xaa, 0xc3, 
  0x81, 0xe4, 0xaf, 0xe9, 0xbf, 0x33, 0xc2, 0x20, 0x03, 0x1f, 0xfc, 0xdd, 
  0x61, 0xfd, 0xa2, 0xc5, 0x2a, 0x17, 0xd0, 0x43, 0xaa, 0x4d, 0xcd, 0x56, 
  0x5e, 0xbd, 0xf6, 0x4d, 0xcb, 0x25, 0xf0, 0x57, 0xf3, 0x01, 0xd3, 0x4c, 
  0x2f, 0x35, 0xc8, 0x68, 0xf7, 0xf8, 0xd0, 0xf0, 0xf5, 0x06, 0xdc, 0x39, 
  0xbc, 0xc5, 0x5d, 0x28, 0xe2, 0xd5, 0x07, 0xb7, 0xd7, 0xb6, 0x96, 0xbe, 
  0x6a, 0x7f, 0xef, 0x25, 0x58, 0xde, 0x48, 0x73, 0x68, 0x69, 0xa4, 0xee, 
  0x42, 0xc1, 0x50, 0xfe, 0x91, 0x0c, 0x41, 0x2e, 0xd5, 0xf9, 0x00, 0x3f, 
  0xdf, 0x46, 0xd8, 0xef, 0x0f, 0xd3, 0x3a, 0x5b, 0xb7, 0x40, 0xd9, 0xd0, 
  0x52, 0xf2, 0xf5, 0x11, 0xb9, 0x9c, 0xa3, 0x46, 0xf5, 0x53, 0x21, 0xd2, 
  0x36, 0x51, 0x34, 0x3b, 0x12, 0x36, 0xbe, 0x45, 0x10, 0x16, 0x2d, 0x81, 
  0x4f, 0xdf, 0xe9, 0x01, 0x89, 0xaf, 0xef, 0xd3, 0xc5, 0xb8, 0xff, 0x99, 
  0xf6, 0xf4, 0x67, 0x4c, 0xc5, 0x07, 0xee, 0xd4, 0xd4, 0xba, 0xe7, 0xbd, 
  0xff, 0x8e, 0x30, 0xd9, 0xdf, 0x36, 0xfc, 0x81, 0x17, 0xfe, 0xfc, 0xd0, 
  0x08, 0x06, 0xfb, 0xce, 0x07, 0x06, 0xde, 0xd5, 0xf9, 0xf7, 0x07, 0xce, 
  0xce, 0xcf, 0xe2, 0x20, 0xb2, 0xf7, 0xff, 0xff, 0x04, 0x00, 0x00, 0x00, 
  0x80, 0x00, 0x00, 0x00, 0x30, 0x0b, 0x00, 0x00, 0x0b, 0xff, 0xff, 0xff, 
  0x2d, 0x01, 0x00, 0x00, 0x98, 0x05, 0x00, 0x00, 0xbc, 0x04, 0x00, 0x00, 
  0x24, 0xfe, 0xff, 0xff, 0x56, 0xfe, 0xff, 0xff, 0xd3, 0x01, 0x00, 0x00, 
  0x3b, 0xfe, 0xff, 0xff, 0xac, 0x02, 0x00, 0x00, 0xbd, 0xff, 0xff, 0xff, 
  0x96, 0xfd, 0xff, 0xff, 0x70, 0x00, 0x00, 0x00, 0x9e, 0x01, 0x00, 0x00, 
  0xe2, 0x00, 0x00, 0x00, 0xf0, 0x00, 0x00, 0x00, 0xa6, 0xff, 0xff, 0xff, 
  0x09, 0x01, 0x00, 0x00, 0xd0, 0x02, 0x00, 0x00, 0x7c, 0x00, 0x00, 0x00, 
  0x04, 0x03, 0x00, 0x00, 0x3c, 0x01, 0x00, 0x00, 0xf8, 0xff, 0xff, 0xff, 
  0x49, 0xfc, 0xff, 0xff, 0xee, 0x07, 0x00, 0x00, 0x9e, 0xfe, 0xff, 0xff, 
  0x02, 0x02, 0x00, 0x00, 0x6f, 0x01, 0x00, 0x00, 0x45, 0xff, 0xff, 0xff, 
  0x76, 0x00, 0x00, 0x00, 0x51, 0x00, 0x00, 0x00, 0xff, 0x05, 0x00, 0x00, 
  0x3e, 0xf8, 0xff, 0xff, 0x04, 0x00, 0x00, 0x00, 0xa0, 0x00, 0x00, 0x00, 
  0x29, 0x7f, 0x2f, 0x34, 0x7f, 0x06, 0x12, 0x5d, 0xbd, 0x81, 0x1b, 0x8a, 
  0xc3, 0x81, 0x7f, 0x65, 0x9d, 0x81, 0x97, 0xb3, 0x2c, 0x7f, 0xa2, 0x7f, 
  0x3c, 0xcf, 0x7f, 0x81, 0xda, 0xb1, 0x41, 0x9e, 0xf2, 0x44, 0x8a, 0x37, 
  0x0d, 0xfb, 0x7c, 0x7f, 0xf3, 0xe7, 0x81, 0xf1, 0x20, 0x0e, 0xc6, 0xea, 
  0x2a, 0xee, 0xa7, 0x48, 0x81, 0x2b, 0x81, 0xd7, 0x7f, 0x01, 0xca, 0x32, 
  0x1b, 0x6c, 0x52, 0xda, 0x18, 0xed, 0x36, 0x2f, 0x43, 0x81, 0xe3, 0x9c, 
  0x7f, 0x38, 0x8e, 0x22, 0x81, 0xa9, 0x61, 0xe5, 0xb8, 0xeb, 0xa6, 0x55, 
  0x10, 0x49, 0x20, 0x39, 0x31, 0x31, 0x28, 0x22, 0x7f, 0x81, 0xd9, 0xba, 
  0xe0, 0x41, 0xd5, 0xe0, 0x1d, 0xc4, 0x7f, 0x7a, 0x06, 0x01, 0x31, 0xf7, 
  0xc0, 0x08, 0x6b, 0x20, 0x39, 0xf6, 0x7f, 0x6a, 0x25, 0x46, 0xcb, 0x2f, 
  0x0c, 0xcb, 0x0f, 0x2a, 0x32, 0x4f, 0x7f, 0x7f, 0x7f, 0x62, 0x81, 0x7f, 
  0x62, 0x3a, 0x1d, 0x70, 0xc3, 0x5a, 0x0b, 0x81, 0xcf, 0x8f, 0x15, 0x81, 
  0x81, 0x82, 0x11, 0x81, 0x60, 0x54, 0xa1, 0x4b, 0xdf, 0x7f, 0x32, 0xb8, 
  0x7f, 0x83, 0x7c, 0x47, 0xea, 0xf8, 0xff, 0xff, 0x04, 0x00, 0x00, 0x00, 
  0x80, 0x00, 0x00, 0x00, 0x56, 0xfa, 0xff, 0xff, 0xf1, 0xf2, 0xff, 0xff, 
  0x73, 0x07, 0x00, 0x00, 0xcd, 0xf4, 0xff, 0xff, 0x6e, 0xf2, 0xff, 0xff, 
  0x0e, 0x04, 0x00, 0x00, 0x3b, 0xf5, 0xff, 0xff, 0x0a, 0xef, 0xff, 0xff, 
  0xd0, 0xff, 0xff, 0xff, 0xc7, 0xff, 0xff, 0xff, 0xb7, 0x07, 0x00, 0x00, 
  0x77, 0x0a, 0x00, 0x00, 0x96, 0x0d, 0x00, 0x00, 0x08, 0x10, 0x00, 0x00, 
  0x0f, 0xf4, 0xff, 0xff, 0x05, 0x00, 0x00, 0x00, 0x53, 0x0a, 0x00, 0x00, 
  0x74, 0x11, 0x00, 0x00, 0x51, 0x07, 0x00, 0x00, 0x2d, 0xfc, 0xff, 0xff, 
  0x59, 0xfd, 0xff, 0xff, 0x2f, 0xef, 0xff, 0xff, 0x66, 0x11, 0x00, 0x00, 
  0x83, 0xf7, 0xff, 0xff, 0x86, 0xf7, 0xff, 0xff, 0xc4, 0xfc, 0xff, 0xff, 
  0x4a, 0xf9, 0xff, 0xff, 0x55, 0x02, 0x00, 0x00, 0xee, 0xf5, 0xff, 0xff, 
  0xd4, 0x05, 0x00, 0x00, 0x94, 0xf0, 0xff, 0xff, 0xdb, 0xfe, 0xff, 0xff, 
  0x76, 0xf9, 0xff, 0xff, 0x04, 0x00, 0x00, 0x00, 0x00, 0x04, 0x00, 0x00, 
  0x1a, 0x3f, 0x44, 0xa7, 0x48, 0x57, 0xb3, 0xba, 0xe9, 0xb8, 0x19, 0x7f, 
  0x5e, 0x4f, 0xd4, 0xdb, 0x74, 0x1a, 0x61, 0x06, 0x66, 0x40, 0xe8, 0xf9, 
  0x0b, 0xf5, 0x02, 0x0b, 0x12, 0xc3, 0xee, 0x35, 0x00, 0x13, 0x58, 0xbc, 
  0x3e, 0x66, 0xdd, 0x81, 0x4b, 0x77, 0x35, 0xcb, 0xd6, 0xc7, 0x1c, 0x07, 
  0x14, 0x56, 0xff, 0x4d, 0x55, 0xd4, 0x0f, 0x3c, 0xcb, 0x42, 0xf1, 0x05, 
  0x47, 0xa0, 0x8d, 0x43, 0xbe, 0x6b, 0xc1, 0xab, 0x9d, 0xca, 0xcd, 0x9d, 
  0x43, 0xdd, 0xcf, 0x00, 0x32, 0x0f, 0x83, 0x79, 0x7f, 0x03, 0xdd, 0x40, 
  0xd9, 0x61, 0xea, 0x0d, 0xc6, 0x27, 0x47, 0x66, 0x5e, 0x3b, 0xcf, 0x1f, 
  0xda, 0xc5, 0x7f, 0x25, 0xea, 0xb4, 0x57, 0xdf, 0x24, 0x24, 0x6b, 0xb5, 
  0xe7, 0x61, 0xef, 0x9a, 0x82, 0xb3, 0x99, 0xc4, 0x9b, 0x5b, 0x94, 0xc4, 
  0x39, 0xe5, 0x6d, 0x37, 0xb1, 0xda, 0x06, 0xc6, 0x59, 0x0c, 0x3f, 0x4f, 
  0x01, 0x3e, 0xc8, 0x04, 0x1f, 0x93, 0x45, 0xd3, 0xcb, 0xba, 0x2c, 0xaf, 
  0xf5, 0x7f, 0xf7, 0xda, 0x2f, 0xb0, 0x14, 0xe9, 0xf8, 0x61, 0xc3, 0xd3, 
  0x0c, 0x13, 0x68, 0xf7, 0x2b, 0xc5, 0xc0, 0x04, 0xe5, 0xdb, 0xf4, 0xde, 
  0xec, 0xdb, 0x9d, 0x96, 0x3b, 0x17, 0xfc, 0x37, 0xc0, 0x61, 0x28, 0x55, 
  0x0c, 0x35, 0x14, 0xe3, 0xcb, 0x72, 0x25, 0x3a, 0x29, 0x9d, 0x41, 0x7f, 
  0x1b, 0x81, 0xf7, 0x47, 0xe3, 0x14, 0xb9, 0x68, 0xe1, 0x8f, 0x0a, 0x5a, 
  0x3b, 0x72, 0x1f, 0xb7, 0x0d, 0xd0, 0xbc, 0x36, 0x59, 0x74, 0x15, 0x20, 
  0x40, 0x3e, 0x43, 0xf4, 0x12, 0x26, 0xd7, 0xa8, 0xf7, 0x9d, 0x81, 0x75, 
  0xa7, 0x9a, 0x20, 0x5a, 0xfd, 0x1e, 0x10, 0x57, 0xaa, 0x0d, 0xe1, 0x0a, 
  0xf5, 0xa9, 0x0b, 0xc1, 0x25, 0x1b, 0x04, 0xdb, 0x79, 0x3c, 0xdc, 0xd6, 
  0x28, 0xae, 0x26, 0x5e, 0xec, 0xe0, 0x1c, 0xca, 0xc9, 0x20, 0x42, 0x0e, 
  0xfe, 0xb6, 0x81, 0x06, 0x61, 0x4a, 0xe9, 0xa0, 0x31, 0x09, 0x53, 0xbd, 
  0xcb, 0x52, 0x57, 0xb5, 0xfe, 0x3b, 0xb6, 0xbc, 0xba, 0xb4, 0x18, 0xce, 
  0x11, 0x05, 0xad, 0xca, 0x12, 0x38, 0x60, 0xf8, 0xad, 0xb1, 0xf1, 0x4d, 
  0xa8, 0x90, 0xac, 0x22, 0x81, 0xa9, 0x14, 0x87, 0x13, 0x66, 0xf0, 0x7d, 
  0x69, 0x05, 0x52, 0xb4, 0x29, 0xef, 0x63, 0x19, 0x33, 0xf4, 0xe2, 0xa4, 
  0xe1, 0xcb, 0x49, 0x10, 0xbc, 0xe3, 0x41, 0xec, 0x0a, 0x0e, 0xae, 0xa8, 
  0xc6, 0x11, 0x81, 0xb7, 0x0e, 0x11, 0xf1, 0xde, 0x22, 0x04, 0x3c, 0x13, 
  0x0f, 0x0a, 0x5f, 0x2c, 0xde, 0x06, 0xdc, 0x2e, 0x7d, 0x24, 0x13, 0x07, 
  0xd8, 0xf6, 0xee, 0x45, 0x32, 0x7f, 0xaa, 0x99, 0x55, 0xf5, 0xe3, 0xda, 
  0xfb, 0x36, 0x45, 0xf6, 0xbc, 0xce, 0x10, 0x13, 0xe1, 0xae, 0xe1, 0xdb, 
  0x11, 0xd9, 0x3a, 0x0a, 0x9a, 0xa7, 0x10, 0x21, 0xd4, 0xad, 0xa1, 0xfd, 
  0x01, 0x6b, 0x09, 0xe7, 0x7f, 0xe6, 0xcd, 0xe2, 0xce, 0xe2, 0x1a, 0xd7, 
  0xf1, 0xdc, 0x24, 0xfc, 0xce, 0xe6, 0x16, 0xc8, 0xd5, 0xc0, 0x38, 0x38, 
  0x12, 0xb2, 0x22, 0xea, 0x11, 0xf3, 0x37, 0xca, 0x25, 0x81, 0x36, 0xc5, 
  0xc4, 0xb5, 0xdd, 0xe2, 0xf4, 0xf2, 0x45, 0x0f, 0x2d, 0x02, 0x0d, 0x23, 
  0xd0, 0x17, 0x35, 0x1d, 0xe2, 0xe6, 0xb3, 0x28, 0xc4, 0xa3, 0xb6, 0x2b, 
  0xf5, 0xb2, 0x18, 0x2e, 0x7f, 0x26, 0x4d, 0x11, 0x10, 0x6f, 0xad, 0x4d, 
  0xd7, 0x08, 0x45, 0xfd, 0x01, 0x12, 0x33, 0x23, 0xdb, 0xde, 0xd8, 0x4b, 
  0x23, 0xe6, 0x0f, 0xe0, 0x9f, 0xa4, 0x04, 0x0a, 0xf0, 0xad, 0x37, 0x39, 
  0x98, 0x87, 0x41, 0x03, 0x28, 0x04, 0x38, 0x0f, 0x2a, 0x0d, 0x86, 0x4b, 
  0x5b, 0x76, 0xdc, 0x0a, 0x4a, 0x53, 0xdf, 0x7f, 0xf1, 0x2d, 0x18, 0x48, 
  0x0f, 0xf8, 0x16, 0x1a, 0xba, 0xd7, 0x35, 0xdc, 0x7f, 0x78, 0xe3, 0xd0, 
  0x1e, 0xa8, 0xa8, 0xf3, 0x1b, 0x39, 0x62, 0x08, 0xc9, 0xbf, 0x34, 0xd1, 
  0xb1, 0x35, 0xf7, 0xbd, 0xfc, 0xd7, 0x4b, 0xbd, 0x53, 0x61, 0x26, 0xe9, 
  0xbc, 0x4c, 0xae, 0x6a, 0xb1, 0x66, 0x96, 0x30, 0x11, 0xf5, 0xd7, 0xb2, 
  0x29, 0xe4, 0x7f, 0x8e, 0xdd, 0xda, 0xb8, 0x35, 0xf1, 0xbd, 0x4f, 0xa0, 
  0x44, 0x9c, 0x30, 0x3a, 0xd4, 0xbc, 0x01, 0xfa, 0x33, 0x3a, 0x4e, 0x73, 
  0x35, 0x4c, 0x31, 0xb6, 0xe2, 0x27, 0x27, 0x3a, 0x8e, 0x81, 0xbb, 0xef, 
  0x03, 0xa0, 0x0e, 0xb0, 0xe5, 0x74, 0xb8, 0x16, 0xff, 0x53, 0xe7, 0x9a, 
  0x5e, 0x07, 0x65, 0xf1, 0x99, 0x3d, 0x3f, 0x58, 0x81, 0xc2, 0x8d, 0x5b, 
  0xcd, 0x84, 0xb1, 0xb7, 0x1f, 0xb8, 0xa2, 0x51, 0xe7, 0xac, 0x10, 0x64, 
  0xe8, 0x0d, 0x3f, 0xed, 0x19, 0xff, 0xd9, 0xd4, 0x14, 0x2c, 0xf6, 0x0f, 
  0x4c, 0x52, 0x51, 0x3e, 0xa4, 0xc0, 0xd5, 0x01, 0x81, 0xe3, 0x50, 0x14, 
  0xda, 0x16, 0x1e, 0x52, 0x0d, 0xf1, 0x44, 0xdf, 0x37, 0x1b, 0xf0, 0x18, 
  0xa0, 0x36, 0x6b, 0xff, 0x24, 0xf0, 0xb0, 0xc2, 0xe1, 0x6d, 0xdb, 0x39, 
  0x9b, 0xd8, 0xba, 0x7f, 0xeb, 0xce, 0x01, 0x40, 0x0d, 0x9e, 0x83, 0x39, 
  0xdc, 0x18, 0x09, 0x51, 0x45, 0xb1, 0xce, 0xe1, 0x06, 0xeb, 0xa9, 0xf6, 
  0x05, 0xcb, 0x1c, 0x34, 0xe9, 0xb1, 0x9e, 0xd0, 0xf6, 0x16, 0xb3, 0xfd, 
  0x21, 0x81, 0xe0, 0xf4, 0xb7, 0x5f, 0x53, 0x25, 0xbc, 0xd3, 0x51, 0xc7, 
  0xf9, 0xae, 0x0f, 0xf3, 0xc7, 0xf8, 0x81, 0xc0, 0x32, 0xe6, 0xc7, 0x3e, 
  0x94, 0x8d, 0xac, 0x7d, 0x49, 0xd1, 0x2d, 0xf0, 0x03, 0x20, 0xf4, 0x3a, 
  0x0f, 0x1e, 0x40, 0x57, 0xd8, 0x0f, 0xf6, 0xa5, 0x44, 0xce, 0xbb, 0x48, 
  0xca, 0x41, 0x4d, 0xd3, 0x48, 0x59, 0x32, 0xdd, 0xcb, 0x2d, 0xaa, 0x3c, 
  0x49, 0x7f, 0x0e, 0xad, 0xd5, 0x8a, 0xf3, 0x0f, 0x51, 0x71, 0x23, 0xae, 
  0xef, 0x10, 0xe0, 0x9f, 0xd0, 0x9e, 0x07, 0xb6, 0x59, 0x96, 0x00, 0xef, 
  0x31, 0xd8, 0xb7, 0xdd, 0x9a, 0xac, 0xd8, 0xef, 0x1c, 0xbd, 0x7f, 0x1b, 
  0x98, 0x16, 0x27, 0x69, 0x19, 0x14, 0x22, 0xd1, 0x1f, 0x62, 0x18, 0xd1, 
  0x3a, 0x4a, 0x43, 0x7f, 0xcc, 0x31, 0x90, 0xdc, 0x82, 0x5e, 0x20, 0xb0, 
  0x6e, 0x4f, 0xe9, 0x67, 0xf0, 0x22, 0xb8, 0x38, 0x60, 0xa8, 0xfb, 0xdd, 
  0x7f, 0x45, 0x61, 0x22, 0x49, 0xb4, 0x74, 0x2c, 0xd7, 0xed, 0xfb, 0xfe, 
  0x52, 0x15, 0x46, 0xc0, 0xd7, 0x2c, 0x5a, 0xd3, 0xbd, 0xd4, 0xfa, 0xd1, 
  0xc6, 0xb2, 0x2f, 0x0c, 0x81, 0x1a, 0xee, 0xb1, 0xf7, 0x3f, 0x19, 0x18, 
  0x66, 0xb5, 0x04, 0xf1, 0xe5, 0xca, 0x52, 0x06, 0xe2, 0x3f, 0xd5, 0xdd, 
  0xe8, 0xc1, 0xfd, 0xff, 0xb4, 0xe6, 0xf9, 0x4f, 0x59, 0x7f, 0xb8, 0xbd, 
  0x66, 0xe3, 0xa7, 0xf6, 0x30, 0xe5, 0xeb, 0xcc, 0xd9, 0xdc, 0xe0, 0xb8, 
  0xe2, 0x0b, 0x25, 0xd9, 0x4a, 0x5e, 0xa0, 0xef, 0xdb, 0x81, 0x5b, 0xf6, 
  0xc2, 0x22, 0xa2, 0x3a, 0x25, 0x16, 0xc9, 0x1c, 0xb7, 0xb1, 0x0c, 0xd4, 
  0x20, 0x27, 0xe8, 0x03, 0x02, 0xd8, 0x57, 0xf3, 0x0e, 0x1a, 0x39, 0xb9, 
  0xef, 0x24, 0x48, 0x9f, 0xf3, 0xca, 0x34, 0xa8, 0x00, 0x31, 0x13, 0xde, 
  0x23, 0xac, 0xde, 0x7f, 0x82, 0x1a, 0x57, 0xf6, 0xe8, 0x2f, 0xfb, 0xeb, 
  0x2d, 0x25, 0xcb, 0xde, 0x70, 0x1b, 0xe5, 0x41, 0x54, 0x29, 0x25, 0xf1, 
  0x87, 0x4f, 0x35, 0x2f, 0xb3, 0x84, 0xae, 0x2d, 0x36, 0x7e, 0xfc, 0x42, 
  0x35, 0xdb, 0xba, 0x22, 0xbd, 0x32, 0xcc, 0x17, 0xa4, 0xe0, 0xf9, 0xbd, 
  0xbf, 0xaa, 0x81, 0x98, 0x82, 0xfd, 0xff, 0xff, 0x04, 0x00, 0x00, 0x00, 
  0x80, 0x00, 0x00, 0x00, 0x4f, 0xe4, 0xff, 0xff, 0x86, 0xf9, 0xff, 0xff, 
  0x99, 0xff, 0xff, 0xff, 0x3e, 0x0f, 0x00, 0x00, 0x46, 0xf9, 0xff, 0xff, 
  0x28, 0xff, 0xff, 0xff, 0x37, 0xea, 0xff, 0xff, 0xe3, 0x03, 0x00, 0x00, 
  0xee, 0x01, 0x00, 0x00, 0xda, 0x05, 0x00, 0x00, 0x51, 0x06, 0x00, 0x00, 
  0x5e, 0xf4, 0xff, 0xff, 0x99, 0x07, 0x00, 0x00, 0xa4, 0x07, 0x00, 0x00, 
  0x87, 0xf5, 0xff, 0xff, 0x11, 0xfd, 0xff, 0xff, 0x78, 0xf6, 0xff, 0xff, 
  0x6e, 0xff, 0xff, 0xff, 0x1f, 0xfd, 0xff, 0xff, 0xb4, 0x0d, 0x00, 0x00, 
  0x2a, 0xfd, 0xff, 0xff, 0x7d, 0x0d, 0x00, 0x00, 0x84, 0x10, 0x00, 0x00, 
  0xa5, 0xfd, 0xff, 0xff, 0x08, 0xfa, 0xff, 0xff, 0x32, 0xfa, 0xff, 0xff, 
  0xb6, 0xf5, 0xff, 0xff, 0x08, 0x07, 0x00, 0x00, 0x6d, 0x01, 0x00, 0x00, 
  0x75, 0x04, 0x00, 0x00, 0xce, 0x03, 0x00, 0x00, 0x42, 0x07, 0x00, 0x00, 
  0x0e, 0xfe, 0xff, 0xff, 0x04, 0x00, 0x00, 0x00, 0xc0, 0x00, 0x00, 0x00, 
  0x15, 0x78, 0x47, 0xa3, 0xfc, 0x3a, 0xd9, 0xc7, 0xe1, 0xca, 0xb1, 0xac, 
  0xb6, 0xd0, 0x35, 0x6e, 0xb8, 0xe9, 0x2b, 0xda, 0x38, 0x64, 0x81, 0x1c, 
  0xc1, 0x4c, 0xd7, 0xb7, 0xe8, 0xb3, 0x09, 0xd5, 0x91, 0xa1, 0x81, 0x69, 
  0x2e, 0xe5, 0x09, 0x2f, 0xff, 0x4e, 0x67, 0xa6, 0x35, 0x40, 0x46, 0xbe, 
  0x3b, 0x32, 0xbf, 0xfe, 0xfb, 0xc2, 0xf3, 0xd7, 0xe6, 0x45, 0x95, 0x6e, 
  0xfe, 0x40, 0xa0, 0xbb, 0xe0, 0x2a, 0x52, 0x2e, 0xcf, 0xb5, 0x97, 0xbc, 
  0xc3, 0x4c, 0x06, 0xe7, 0xcc, 0xeb, 0x82, 0xef, 0x09, 0xbb, 0xda, 0x7f, 
  0x42, 0x60, 0xcf, 0xcc, 0xf5, 0x96, 0x5a, 0x22, 0xdc, 0x44, 0x14, 0xbc, 
  0x64, 0x28, 0x65, 0xbf, 0xfb, 0xd6, 0xfe, 0xd7, 0x6f, 0x14, 0x03, 0x1a, 
  0x78, 0x97, 0x5b, 0x81, 0x44, 0x0c, 0x3c, 0x86, 0xd1, 0x0d, 0x4f, 0x53, 
  0x1c, 0xcc, 0x41, 0x8e, 0x68, 0x00, 0x8c, 0xf7, 0x2d, 0xf4, 0x31, 0x0f, 
  0xe2, 0x92, 0x18, 0x8e, 0xdc, 0xa3, 0x0e, 0x76, 0x12, 0x9d, 0x2e, 0x85, 
  0x2c, 0x73, 0x4f, 0x1d, 0xe0, 0x4b, 0xa8, 0xf9, 0x1e, 0x81, 0xb0, 0xb2, 
  0x3f, 0x97, 0xac, 0x48, 0x4c, 0x09, 0xd7, 0xd8, 0xcf, 0xde, 0x56, 0xf1, 
  0xff, 0x40, 0xf2, 0x5d, 0xa5, 0xef, 0x81, 0xab, 0x1c, 0x69, 0xc7, 0x38, 
  0x3a, 0x21, 0x18, 0x76, 0x64, 0x3f, 0xea, 0xe7, 0xfa, 0x07, 0xd0, 0xd6, 
  0xda, 0xfe, 0xff, 0xff, 0x04, 0x00, 0x00, 0x00, 0x18, 0x00, 0x00, 0x00, 
  0xd6, 0x02, 0x00, 0x00, 0xd6, 0x00, 0x00, 0x00, 0xb2, 0xfe, 0xff, 0xff, 
  0x6c, 0xfe, 0xff, 0xff, 0x33, 0x00, 0x00, 0x00, 0x12, 0xfe, 0xff, 0xff, 
  0xfe, 0xfe, 0xff, 0xff, 0x04, 0x00, 0x00, 0x00, 0x0c, 0x00, 0x00, 0x00, 
  0xff, 0xff, 0xff, 0xff, 0x40, 0x00, 0x00, 0x00, 0x20, 0x00, 0x00, 0x00, 
  0x16, 0xff, 0xff, 0xff, 0x04, 0x00, 0x00, 0x00, 0x04, 0x00, 0x00, 0x00, 
  0x01, 0x00, 0x00, 0x00, 0x26, 0xff, 0xff, 0xff, 0x04, 0x00, 0x00, 0x00, 
  0x0c, 0x00, 0x00, 0x00, 0xff, 0xff, 0xff, 0xff, 0x80, 0x00, 0x00, 0x00, 
  0x20, 0x00, 0x00, 0x00, 0x3e, 0xff, 0xff, 0xff, 0x04, 0x00, 0x00, 0x00, 
  0x04, 0x00, 0x00, 0x00, 0xfd, 0xff, 0xff, 0xff, 0x3c, 0xda, 0xff, 0xff, 
  0x40, 0xda, 0xff, 0xff, 0x0f, 0x00, 0x00, 0x00, 0x4d, 0x4c, 0x49, 0x52, 
  0x20, 0x43, 0x6f, 0x6e, 0x76, 0x65, 0x72, 0x74, 0x65, 0x64, 0x2e, 0x00, 
  0x01, 0x00, 0x00, 0x00, 0x14, 0x00, 0x00, 0x00, 0x00, 0x00, 0x0e, 0x00, 
  0x18, 0x00, 0x14, 0x00, 0x10, 0x00, 0x0c, 0x00, 0x08, 0x00, 0x04, 0x00, 
  0x0e, 0x00, 0x00, 0x00, 0x14, 0x00, 0x00, 0x00, 0x1c, 0x00, 0x00, 0x00, 
  0xa8, 0x03, 0x00, 0x00, 0xac, 0x03, 0x00, 0x00, 0xb0, 0x03, 0x00, 0x00, 
  0x04, 0x00, 0x00, 0x00, 0x6d, 0x61, 0x69, 0x6e, 0x00, 0x00, 0x00, 0x00, 
  0x0f, 0x00, 0x00, 0x00, 0x60, 0x03, 0x00, 0x00, 0x00, 0x03, 0x00, 0x00, 
  0xc8, 0x02, 0x00, 0x00, 0x8c, 0x02, 0x00, 0x00, 0x34, 0x02, 0x00, 0x00, 
  0xfc, 0x01, 0x00, 0x00, 0xcc, 0x01, 0x00, 0x00, 0x80, 0x01, 0x00, 0x00, 
  0x58, 0x01, 0x00, 0x00, 0x28, 0x01, 0x00, 0x00, 0xd4, 0x00, 0x00, 0x00, 
  0xac, 0x00, 0x00, 0x00, 0x78, 0x00, 0x00, 0x00, 0x40, 0x00, 0x00, 0x00, 
  0x04, 0x00, 0x00, 0x00, 0x06, 0xfe, 0xff, 0xff, 0x1c, 0x00, 0x00, 0x00, 
  0x00, 0x00, 0x00, 0x09, 0x1c, 0x00, 0x00, 0x00, 0x20, 0x00, 0x00, 0x00, 
  0x07, 0x00, 0x00, 0x00, 0x00, 0x00, 0x06, 0x00, 0x08, 0x00, 0x04, 0x00, 
  0x06, 0x00, 0x00, 0x00, 0x00, 0x00, 0x80, 0x3f, 0x01, 0x00, 0x00, 0x00, 
  0x1b, 0x00, 0x00, 0x00, 0x01, 0x00, 0x00, 0x00, 0x1a, 0x00, 0x00, 0x00, 
  0x7e, 0xfd, 0xff, 0xff, 0x14, 0x00, 0x00, 0x00, 0x00, 0x00, 0x00, 0x08, 
  0x10, 0x00, 0x00, 0x00, 0x14, 0x00, 0x00, 0x00, 0x06, 0x00, 0x00, 0x00, 
  0x24, 0xdb, 0xff, 0xff, 0x01, 0x00, 0x00, 0x00, 0x1a, 0x00, 0x00, 0x00, 
  0x03, 0x00, 0x00, 0x00, 0x19, 0x00, 0x00, 0x00, 0x06, 0x00, 0x00, 0x00, 
  0x05, 0x00, 0x00, 0x00, 0xb2, 0xfd, 0xff, 0xff, 0x14, 0x00, 0x00, 0x00, 
  0x00, 0x00, 0x00, 0x1b, 0x10, 0x00, 0x00, 0x00, 0x14, 0x00, 0x00, 0x00, 
  0x05, 0x00, 0x00, 0x00, 0x58, 0xdb, 0xff, 0xff, 0x01, 0x00, 0x00, 0x00, 
  0x19, 0x00, 0x00, 0x00, 0x02, 0x00, 0x00, 0x00, 0x18, 0x00, 0x00, 0x00, 
  0x03, 0x00, 0x00, 0x00, 0x12, 0xfe, 0xff, 0xff, 0x0c, 0x00, 0x00, 0x00, 
  0x10, 0x00, 0x00, 0x00, 0x02, 0x00, 0x00, 0x00, 0x01, 0x00, 0x00, 0x00, 
  0x18, 0x00, 0x00, 0x00, 0x02, 0x00, 0x00, 0x00, 0x17, 0x00, 0x00, 0x00, 
  0x04, 0x00, 0x00, 0x00, 0xc6, 0xfe, 0xff, 0xff, 0x24, 0x00, 0x00, 0x00, 
  0x00, 0x00, 0x00, 0x05, 0x34, 0x00, 0x00, 0x00, 0x38, 0x00, 0x00, 0x00, 
  0x04, 0x00, 0x00, 0x00, 0x00, 0x00, 0x0e, 0x00, 0x18, 0x00, 0x17, 0x00, 
  0x10, 0x00, 0x0c, 0x00, 0x08, 0x00, 0x04, 0x00, 0x0e, 0x00, 0x00, 0x00, 
  0x01, 0x00, 0x00, 0x00, 0x02, 0x00, 0x00, 0x00, 0x01, 0x00, 0x00, 0x00, 
  0x02, 0x00, 0x00, 0x00, 0x00, 0x00, 0x00, 0x01, 0x01, 0x00, 0x00, 0x00, 
  0x17, 0x00, 0x00, 0x00, 0x01, 0x00, 0x00, 0x00, 0x16, 0x00, 0x00, 0x00, 
  0xfa, 0xfd, 0xff, 0xff, 0x10, 0x00, 0x00, 0x00, 0x00, 0x00, 0x00, 0x34, 
  0x0c, 0x00, 0x00, 0x00, 0x10, 0x00, 0x00, 0x00, 0xf8, 0xdb, 0xff, 0xff, 
  0x01, 0x00, 0x00, 0x00, 0x16, 0x00, 0x00, 0x00, 0x02, 0x00, 0x00, 0x00, 
  0x15, 0x00, 0x00, 0x00, 0x03, 0x00, 0x00, 0x00, 0xb2, 0xfe, 0xff, 0xff, 
  0x0c, 0x00, 0x00, 0x00, 0x10, 0x00, 0x00, 0x00, 0x02, 0x00, 0x00, 0x00, 
  0x01, 0x00, 0x00, 0x00, 0x15, 0x00, 0x00, 0x00, 0x02, 0x00, 0x00, 0x00, 
  0x14, 0x00, 0x00, 0x00, 0x02, 0x00, 0x00, 0x00, 0x66, 0xff, 0xff, 0xff, 
  0x20, 0x00, 0x00, 0x00, 0x00, 0x00, 0x00, 0x01, 0x24, 0x00, 0x00, 0x00, 
  0x28, 0x00, 0x00, 0x00, 0x01, 0x00, 0x00, 0x00, 0x00, 0x00, 0x0a, 0x00, 
  0x0c, 0x00, 0x00, 0x00, 0x08, 0x00, 0x04, 0x00, 0x0a, 0x00, 0x00, 0x00, 
  0x01, 0x00, 0x00, 0x00, 0x01, 0x00, 0x00, 0x00, 0x01, 0x00, 0x00, 0x00, 
  0x14, 0x00, 0x00, 0x00, 0x03, 0x00, 0x00, 0x00, 0x13, 0x00, 0x00, 0x00, 
  0x08, 0x00, 0x00, 0x00, 0x07, 0x00, 0x00, 0x00, 0x92, 0xfe, 0xff, 0xff, 
  0x10, 0x00, 0x00, 0x00, 0x00, 0x00, 0x00, 0x34, 0x0c, 0x00, 0x00, 0x00, 
  0x10, 0x00, 0x00, 0x00, 0x90, 0xdc, 0xff, 0xff, 0x01, 0x00, 0x00, 0x00, 
  0x13, 0x00, 0x00, 0x00, 0x02, 0x00, 0x00, 0x00, 0x12, 0x00, 0x00, 0x00, 
  0x01, 0x00, 0x00, 0x00, 0x4a, 0xff, 0xff, 0xff, 0x0c, 0x00, 0x00, 0x00, 
  0x10, 0x00, 0x00, 0x00, 0x02, 0x00, 0x00, 0x00, 0x01, 0x00, 0x00, 0x00, 
  0x12, 0x00, 0x00, 0x00, 0x02, 0x00, 0x00, 0x00, 0x11, 0x00, 0x00, 0x00, 
  0x02, 0x00, 0x00, 0x00, 0x00, 0x00, 0x0e, 0x00, 0x1a, 0x00, 0x14, 0x00, 
  0x10, 0x00, 0x0c, 0x00, 0x0b, 0x00, 0x04, 0x00, 0x0e, 0x00, 0x00, 0x00, 
  0x24, 0x00, 0x00, 0x00, 0x00, 0x00, 0x00, 0x02, 0x30, 0x00, 0x00, 0x00, 
  0x34, 0x00, 0x00, 0x00, 0x03, 0x00, 0x00, 0x00, 0x00, 0x00, 0x0e, 0x00, 
  0x14, 0x00, 0x00, 0x00, 0x10, 0x00, 0x0c, 0x00, 0x08, 0x00, 0x07, 0x00, 
  0x0e, 0x00, 0x00, 0x00, 0x00, 0x00, 0x00, 0x01, 0x01, 0x00, 0x00, 0x00, 
  0x01, 0x00, 0x00, 0x00, 0x01, 0x00, 0x00, 0x00, 0x01, 0x00, 0x00, 0x00, 
  0x11, 0x00, 0x00, 0x00, 0x03, 0x00, 0x00, 0x00, 0x10, 0x00, 0x00, 0x00, 
  0x0a, 0x00, 0x00, 0x00, 0x09, 0x00, 0x00, 0x00, 0x46, 0xff, 0xff, 0xff, 
  0x10, 0x00, 0x00, 0x00, 0x00, 0x00, 0x00, 0x34, 0x0c, 0x00, 0x00, 0x00, 
  0x10, 0x00, 0x00, 0x00, 0x44, 0xdd, 0xff, 0xff, 0x01, 0x00, 0x00, 0x00, 
  0x10, 0x00, 0x00, 0x00, 0x02, 0x00, 0x00, 0x00, 0x0f, 0x00, 0x00, 0x00, 
  0x03, 0x00, 0x00, 0x00, 0x00, 0x00, 0x0a, 0x00, 0x10, 0x00, 0x0c, 0x00, 
  0x08, 0x00, 0x04, 0x00, 0x0a, 0x00, 0x00, 0x00, 0x0c, 0x00, 0x00, 0x00, 
  0x10, 0x00, 0x00, 0x00, 0x02, 0x00, 0x00, 0x00, 0x01, 0x00, 0x00, 0x00, 
  0x0f, 0x00, 0x00, 0x00, 0x02, 0x00, 0x00, 0x00, 0x0e, 0x00, 0x00, 0x00, 
  0x02, 0x00, 0x00, 0x00, 0x00, 0x00, 0x0e, 0x00, 0x18, 0x00, 0x14, 0x00, 
  0x10, 0x00, 0x0c, 0x00, 0x0b, 0x00, 0x04, 0x00, 0x0e, 0x00, 0x00, 0x00, 
  0x20, 0x00, 0x00, 0x00, 0x00, 0x00, 0x00, 0x01, 0x28, 0x00, 0x00, 0x00, 
  0x2c, 0x00, 0x00, 0x00, 0x01, 0x00, 0x00, 0x00, 0x0c, 0x00, 0x10, 0x00, 
  0x00, 0x00, 0x0c, 0x00, 0x08, 0x00, 0x07, 0x00, 0x0c, 0x00, 0x00, 0x00, 
  0x00, 0x00, 0x00, 0x01, 0x01, 0x00, 0x00, 0x00, 0x01, 0x00, 0x00, 0x00, 
  0x01, 0x00, 0x00, 0x00, 0x0e, 0x00, 0x00, 0x00, 0x03, 0x00, 0x00, 0x00, 
  0x0d, 0x00, 0x00, 0x00, 0x0c, 0x00, 0x00, 0x00, 0x0b, 0x00, 0x00, 0x00, 
  0x00, 0x00, 0x0e, 0x00, 0x14, 0x00, 0x00, 0x00, 0x10, 0x00, 0x0c, 0x00, 
  0x0b, 0x00, 0x04, 0x00, 0x0e, 0x00, 0x00, 0x00, 0x10, 0x00, 0x00, 0x00, 
  0x00, 0x00, 0x00, 0x34, 0x0c, 0x00, 0x00, 0x00, 0x10, 0x00, 0x00, 0x00, 
  0x0c, 0xde, 0xff, 0xff, 0x01, 0x00, 0x00, 0x00, 0x0d, 0x00, 0x00, 0x00, 
  0x02, 0x00, 0x00, 0x00, 0x00, 0x00, 0x00, 0x00, 0x01, 0x00, 0x00, 0x00, 
  0x01, 0x00, 0x00, 0x00, 0x1b, 0x00, 0x00, 0x00, 0x01, 0x00, 0x00, 0x00, 
  0x00, 0x00, 0x00, 0x00, 0x1c, 0x00, 0x00, 0x00, 0x00, 0x22, 0x00, 0x00, 
  0xa8, 0x21, 0x00, 0x00, 0x50, 0x21, 0x00, 0x00, 0x14, 0x21, 0x00, 0x00, 
  0xb4, 0x20, 0x00, 0x00, 0x0c, 0x20, 0x00, 0x00, 0x60, 0x1f, 0x00, 0x00, 
  0x7c, 0x1c, 0x00, 0x00, 0xf8, 0x19, 0x00, 0x00, 0xf4, 0x16, 0x00, 0x00, 
  0x50, 0x14, 0x00, 0x00, 0x44, 0x11, 0x00, 0x00, 0xc8, 0x0e, 0x00, 0x00, 
  0x24, 0x0e, 0x00, 0x00, 0x80, 0x0c, 0x00, 0x00, 0x00, 0x0b, 0x00, 0x00, 
  0x60, 0x0a, 0x00, 0x00, 0xac, 0x08, 0x00, 0x00, 0x24, 0x07, 0x00, 0x00, 
  0x84, 0x06, 0x00, 0x00, 0xf0, 0x04, 0x00, 0x00, 0x88, 0x03, 0x00, 0x00, 
  0xe0, 0x02, 0x00, 0x00, 0x44, 0x02, 0x00, 0x00, 0xac, 0x01, 0x00, 0x00, 
  0x1c, 0x01, 0x00, 0x00, 0x80, 0x00, 0x00, 0x00, 0x04, 0x00, 0x00, 0x00, 
  0x86, 0xde, 0xff, 0xff, 0x00, 0x00, 0x00, 0x01, 0x18, 0x00, 0x00, 0x00, 
  0x20, 0x00, 0x00, 0x00, 0x3c, 0x00, 0x00, 0x00, 0x1c, 0x00, 0x00, 0x00, 
  0x00, 0x00, 0x00, 0x09, 0x50, 0x00, 0x00, 0x00, 0x02, 0x00, 0x00, 0x00, 
  0xff, 0xff, 0xff, 0xff, 0x06, 0x00, 0x00, 0x00, 0x6c, 0xde, 0xff, 0xff, 
  0x08, 0x00, 0x00, 0x00, 0x10, 0x00, 0x00, 0x00, 0x01, 0x00, 0x00, 0x00, 
  0x80, 0xff, 0xff, 0xff, 0xff, 0xff, 0xff, 0xff, 0x01, 0x00, 0x00, 0x00, 
  0x00, 0x00, 0x80, 0x3b, 0x1b, 0x00, 0x00, 0x00, 0x53, 0x74, 0x61, 0x74, 
  0x65, 0x66, 0x75, 0x6c, 0x50, 0x61, 0x72, 0x74, 0x69, 0x74, 0x69, 0x6f, 
  0x6e, 0x65, 0x64, 0x43, 0x61, 0x6c, 0x6c, 0x5f, 0x31, 0x3a, 0x30, 0x00, 
  0x02, 0x00, 0x00, 0x00, 0x01, 0x00, 0x00, 0x00, 0x06, 0x00, 0x00, 0x00, 
  0xfe, 0xde, 0xff, 0xff, 0x00, 0x00, 0x00, 0x01, 0x18, 0x00, 0x00, 0x00, 
  0x20, 0x00, 0x00, 0x00, 0x3c, 0x00, 0x00, 0x00, 0x1b, 0x00, 0x00, 0x00, 
  0x00, 0x00, 0x00, 0x09, 0x70, 0x00, 0x00, 0x00, 0x02, 0x00, 0x00, 0x00, 
  0xff, 0xff, 0xff, 0xff, 0x06, 0x00, 0x00, 0x00, 0xe4, 0xde, 0xff, 0xff, 
  0x08, 0x00, 0x00, 0x00, 0x10, 0x00, 0x00, 0x00, 0x01, 0x00, 0x00, 0x00, 
  0xe3, 0xff, 0xff, 0xff, 0xff, 0xff, 0xff, 0xff, 0x01, 0x00, 0x00, 0x00, 
  0x84, 0xd7, 0x67, 0x3d, 0x38, 0x00, 0x00, 0x00, 0x66, 0x75, 0x6e, 0x63, 
  0x74, 0x69, 0x6f, 0x6e, 0x61, 0x6c, 0x5f, 0x31, 0x2f, 0x64, 0x65, 0x6e, 
  0x73, 0x65, 0x5f, 0x31, 0x2f, 0x4d, 0x61, 0x74, 0x4d, 0x75, 0x6c, 0x3b, 
  0x66, 0x75, 0x6e, 0x63, 0x74, 0x69, 0x6f, 0x6e, 0x61, 0x6c, 0x5f, 0x31, 
  0x2f, 0x64, 0x65, 0x6e, 0x73, 0x65, 0x5f, 0x31, 0x2f, 0x42, 0x69, 0x61, 
  0x73, 0x41, 0x64, 0x64, 0x00, 0x00, 0x00, 0x00, 0x02, 0x00, 0x00, 0x00, 
  0x01, 0x00, 0x00, 0x00, 0x06, 0x00, 0x00, 0x00, 0x96, 0xdf, 0xff, 0xff, 
  0x00, 0x00, 0x00, 0x01, 0x18, 0x00, 0x00, 0x00, 0x20, 0x00, 0x00, 0x00, 
  0x3c, 0x00, 0x00, 0x00, 0x1a, 0x00, 0x00, 0x00, 0x00, 0x00, 0x00, 0x09, 
  0x64, 0x00, 0x00, 0x00, 0x02, 0x00, 0x00, 0x00, 0xff, 0xff, 0xff, 0xff, 
  0x20, 0x00, 0x00, 0x00, 0x7c, 0xdf, 0xff, 0xff, 0x08, 0x00, 0x00, 0x00, 
  0x10, 0x00, 0x00, 0x00, 0x01, 0x00, 0x00, 0x00, 0xf1, 0xff, 0xff, 0xff, 
  0xff, 0xff, 0xff, 0xff, 0x01, 0x00, 0x00, 0x00, 0xa3, 0x0c, 0xbc, 0x3c, 
  0x2c, 0x00, 0x00, 0x00, 0x66, 0x75, 0x6e, 0x63, 0x74, 0x69, 0x6f, 0x6e, 
  0x61, 0x6c, 0x5f, 0x31, 0x2f, 0x67, 0x6c, 0x6f, 0x62, 0x61, 0x6c, 0x5f, 
  0x61, 0x76, 0x65, 0x72, 0x61, 0x67, 0x65, 0x5f, 0x70, 0x6f, 0x6f, 0x6c, 
  0x69, 0x6e, 0x67, 0x31, 0x64, 0x5f, 0x31, 0x2f, 0x4d, 0x65, 0x61, 0x6e, 
  0x00, 0x00, 0x00, 0x00, 0x02, 0x00, 0x00, 0x00, 0x01, 0x00, 0x00, 0x00, 
  0x20, 0x00, 0x00, 0x00, 0x22, 0xe0, 0xff, 0xff, 0x00, 0x00, 0x00, 0x01, 
  0x18, 0x00, 0x00, 0x00, 0x24, 0x00, 0x00, 0x00, 0x40, 0x00, 0x00, 0x00, 
  0x19, 0x00, 0x00, 0x00, 0x00, 0x00, 0x00, 0x09, 0x68, 0x00, 0x00, 0x00, 
  0x03, 0x00, 0x00, 0x00, 0xff, 0xff, 0xff, 0xff, 0x40, 0x00, 0x00, 0x00, 
  0x20, 0x00, 0x00, 0x00, 0x0c, 0xe0, 0xff, 0xff, 0x08, 0x00, 0x00, 0x00, 
  0x10, 0x00, 0x00, 0x00, 0x01, 0x00, 0x00, 0x00, 0xe9, 0xff, 0xff, 0xff, 
  0xff, 0xff, 0xff, 0xff, 0x01, 0x00, 0x00, 0x00, 0x7d, 0x9e, 0x9b, 0x3d, 
  0x2f, 0x00, 0x00, 0x00, 0x66, 0x75, 0x6e, 0x63, 0x74, 0x69, 0x6f, 0x6e, 
  0x61, 0x6c, 0x5f, 0x31, 0x2f, 0x6d, 0x61, 0x78, 0x5f, 0x70, 0x6f, 0x6f, 
  0x6c, 0x69, 0x6e, 0x67, 0x31, 0x64, 0x5f, 0x31, 0x2f, 0x4d, 0x61, 0x78, 
  0x50, 0x6f, 0x6f, 0x6c, 0x31, 0x64, 0x2f, 0x53, 0x71, 0x75, 0x65, 0x65, 
  0x7a, 0x65, 0x31, 0x00, 0x03, 0x00, 0x00, 0x00, 0x01, 0x00, 0x00, 0x00, 
  0x40, 0x00, 0x00, 0x00, 0x20, 0x00, 0x00, 0x00, 0xb6, 0xe0, 0xff, 0xff, 
  0x00, 0x00, 0x00, 0x01, 0x18, 0x00, 0x00, 0x00, 0x28, 0x00, 0x00, 0x00, 
  0x48, 0x00, 0x00, 0x00, 0x18, 0x00, 0x00, 0x00, 0x00, 0x00, 0x00, 0x09, 
  0x68, 0x00, 0x00, 0x00, 0x04, 0x00, 0x00, 0x00, 0xff, 0xff, 0xff, 0xff, 
  0x01, 0x00, 0x00, 0x00, 0x40, 0x00, 0x00, 0x00, 0x20, 0x00, 0x00, 0x00, 
  0xa4, 0xe0, 0xff, 0xff, 0x08, 0x00, 0x00, 0x00, 0x14, 0x00, 0x00, 0x00, 
  0x01, 0x00, 0x00, 0x00, 0xe9, 0xff, 0xff, 0xff, 0xff, 0xff, 0xff, 0xff, 
  0x00, 0x00, 0x00, 0x00, 0x01, 0x00, 0x00, 0x00, 0x7d, 0x9e, 0x9b, 0x3d, 
  0x26, 0x00, 0x00, 0x00, 0x66, 0x75, 0x6e, 0x63, 0x74, 0x69, 0x6f, 0x6e, 
  0x61, 0x6c, 0x5f, 0x31, 0x2f, 0x6d, 0x61, 0x78, 0x5f, 0x70, 0x6f, 0x6f, 
  0x6c, 0x69, 0x6e, 0x67, 0x31, 0x64, 0x5f, 0x31, 0x2f, 0x4d, 0x61, 0x78, 
  0x50, 0x6f, 0x6f, 0x6c, 0x31, 0x64, 0x00, 0x00, 0x04, 0x00, 0x00, 0x00, 
  0x01, 0x00, 0x00, 0x00, 0x01, 0x00, 0x00, 0x00, 0x40, 0x00, 0x00, 0x00, 
  0x20, 0x00, 0x00, 0x00, 0x4e, 0xe1, 0xff, 0xff, 0x00, 0x00, 0x00, 0x01, 
  0x18, 0x00, 0x00, 0x00, 0x28, 0x00, 0x00, 0x00, 0x48, 0x00, 0x00, 0x00, 
  0x17, 0x00, 0x00, 0x00, 0x00, 0x00, 0x00, 0x09, 0x74, 0x00, 0x00, 0x00, 
  0x04, 0x00, 0x00, 0x00, 0xff, 0xff, 0xff, 0xff, 0x01, 0x00, 0x00, 0x00, 
  0x80, 0x00, 0x00, 0x00, 0x20, 0x00, 0x00, 0x00, 0x3c, 0xe1, 0xff, 0xff, 
  0x08, 0x00, 0x00, 0x00, 0x14, 0x00, 0x00, 0x00, 0x01, 0x00, 0x00, 0x00, 
  0xe9, 0xff, 0xff, 0xff, 0xff, 0xff, 0xff, 0xff, 0x00, 0x00, 0x00, 0x00, 
  0x01, 0x00, 0x00, 0x00, 0x7d, 0x9e, 0x9b, 0x3d, 0x31, 0x00, 0x00, 0x00, 
  0x66, 0x75, 0x6e, 0x63, 0x74, 0x69, 0x6f, 0x6e, 0x61, 0x6c, 0x5f, 0x31, 
  0x2f, 0x6d, 0x61, 0x78, 0x5f, 0x70, 0x6f, 0x6f, 0x6c, 0x69, 0x6e, 0x67, 
  0x31, 0x64, 0x5f, 0x31, 0x2f, 0x4d, 0x61, 0x78, 0x50, 0x6f, 0x6f, 0x6c, 
  0x31, 0x64, 0x2f, 0x45, 0x78, 0x70, 0x61, 0x6e, 0x64, 0x44, 0x69, 0x6d, 
  0x73, 0x00, 0x00, 0x00, 0x04, 0x00, 0x00, 0x00, 0x01, 0x00, 0x00, 0x00, 
  0x01, 0x00, 0x00, 0x00, 0x80, 0x00, 0x00, 0x00, 0x20, 0x00, 0x00, 0x00, 
  0xf2, 0xe1, 0xff, 0xff, 0x00, 0x00, 0x00, 0x01, 0x18, 0x00, 0x00, 0x00, 
  0x24, 0x00, 0x00, 0x00, 0x44, 0x00, 0x00, 0x00, 0x16, 0x00, 0x00, 0x00, 
  0x00, 0x00, 0x00, 0x09, 0x38, 0x01, 0x00, 0x00, 0x03, 0x00, 0x00, 0x00, 
  0xff, 0xff, 0xff, 0xff, 0x80, 0x00, 0x00, 0x00, 0x20, 0x00, 0x00, 0x00, 
  0xdc, 0xe1, 0xff, 0xff, 0x08, 0x00, 0x00, 0x00, 0x14, 0x00, 0x00, 0x00, 
  0x01, 0x00, 0x00, 0x00, 0xe9, 0xff, 0xff, 0xff, 0xff, 0xff, 0xff, 0xff, 
  0x00, 0x00, 0x00, 0x00, 0x01, 0x00, 0x00, 0x00, 0x7d, 0x9e, 0x9b, 0x3d, 
  0xfb, 0x00, 0x00, 0x00, 0x66, 0x75, 0x6e, 0x63, 0x74, 0x69, 0x6f, 0x6e, 
  0x61, 0x6c, 0x5f, 0x31, 0x2f, 0x62, 0x61, 0x74, 0x63, 0x68, 0x5f, 0x6e, 
  0x6f, 0x72, 0x6d, 0x61, 0x6c, 0x69, 0x7a, 0x61, 0x74, 0x69, 0x6f, 0x6e, 
  0x5f, 0x32, 0x5f, 0x31, 0x2f, 0x62, 0x61, 0x74, 0x63, 0x68, 0x6e, 0x6f, 
  0x72, 0x6d, 0x2f, 0x61, 0x64, 0x64, 0x5f, 0x31, 0x3b, 0x66, 0x75, 0x6e, 
  0x63, 0x74, 0x69, 0x6f, 0x6e, 0x61, 0x6c, 0x5f, 0x31, 0x2f, 0x63, 0x6f, 
  0x6e, 0x76, 0x31, 0x64, 0x5f, 0x31, 0x5f, 0x32, 0x2f, 0x63, 0x6f, 0x6e, 
  0x76, 0x6f, 0x6c, 0x75, 0x74, 0x69, 0x6f, 0x6e, 0x2f, 0x53, 0x71, 0x75, 
  0x65, 0x65, 0x7a, 0x65, 0x3b, 0x66, 0x75, 0x6e, 0x63, 0x74, 0x69, 0x6f, 
  0x6e, 0x61, 0x6c, 0x5f, 0x31, 0x2f, 0x62, 0x61, 0x74, 0x63, 0x68, 0x5f, 
  0x6e, 0x6f, 0x72, 0x6d, 0x61, 0x6c, 0x69, 0x7a, 0x61, 0x74, 0x69, 0x6f, 
  0x6e, 0x5f, 0x32, 0x5f, 0x31, 0x2f, 0x62, 0x61, 0x74, 0x63, 0x68, 0x6e, 
  0x6f, 0x72, 0x6d, 0x2f, 0x6d, 0x75, 0x6c, 0x5f, 0x31, 0x3b, 0x66, 0x75, 
  0x6e, 0x63, 0x74, 0x69, 0x6f, 0x6e, 0x61, 0x6c, 0x5f, 0x31, 0x2f, 0x62, 
  0x61, 0x74, 0x63, 0x68, 0x5f, 0x6e, 0x6f, 0x72, 0x6d, 0x61, 0x6c, 0x69, 
  0x7a, 0x61, 0x74, 0x69, 0x6f, 0x6e, 0x5f, 0x32, 0x5f, 0x31, 0x2f, 0x62, 
  0x61, 0x74, 0x63, 0x68, 0x6e, 0x6f, 0x72, 0x6d, 0x2f, 0x6d, 0x75, 0x6c, 
  0x3b, 0x66, 0x75, 0x6e, 0x63, 0x74, 0x69, 0x6f, 0x6e, 0x61, 0x6c, 0x5f, 
  0x31, 0x2f, 0x62, 0x61, 0x74, 0x63, 0x68, 0x5f, 0x6e, 0x6f, 0x72, 0x6d, 
  0x61, 0x6c, 0x69, 0x7a, 0x61, 0x74, 0x69, 0x6f, 0x6e, 0x5f, 0x32, 0x5f, 
  0x31, 0x2f, 0x62, 0x61, 0x74, 0x63, 0x68, 0x6e, 0x6f, 0x72, 0x6d, 0x2f, 
  0x73, 0x75, 0x62, 0x00, 0x03, 0x00, 0x00, 0x00, 0x01, 0x00, 0x00, 0x00, 
  0x80, 0x00, 0x00, 0x00, 0x20, 0x00, 0x00, 0x00, 0x56, 0xe3, 0xff, 0xff, 
  0x00, 0x00, 0x00, 0x01, 0x18, 0x00, 0x00, 0x00, 0x28, 0x00, 0x00, 0x00, 
  0x44, 0x00, 0x00, 0x00, 0x15, 0x00, 0x00, 0x00, 0x00, 0x00, 0x00, 0x09, 
  0x60, 0x01, 0x00, 0x00, 0x04, 0x00, 0x00, 0x00, 0xff, 0xff, 0xff, 0xff, 
  0x01, 0x00, 0x00, 0x00, 0x80, 0x00, 0x00, 0x00, 0x20, 0x00, 0x00, 0x00, 
  0x44, 0xe3, 0xff, 0xff, 0x08, 0x00, 0x00, 0x00, 0x10, 0x00, 0x00, 0x00, 
  0x01, 0x00, 0x00, 0x00, 0xe9, 0xff, 0xff, 0xff, 0xff, 0xff, 0xff, 0xff, 
  0x01, 0x00, 0x00, 0x00, 0x7d, 0x9e, 0x9b, 0x3d, 0x20, 0x01, 0x00, 0x00, 
  0x66, 0x75, 0x6e, 0x63, 0x74, 0x69, 0x6f, 0x6e, 0x61, 0x6c, 0x5f, 0x31, 
  0x2f, 0x62, 0x61, 0x74, 0x63, 0x68, 0x5f, 0x6e, 0x6f, 0x72, 0x6d, 0x61, 
  0x6c, 0x69, 0x7a, 0x61, 0x74, 0x69, 0x6f, 0x6e, 0x5f, 0x32, 0x5f, 0x31, 
  0x2f, 0x62, 0x61, 0x74, 0x63, 0x68, 0x6e, 0x6f, 0x72, 0x6d, 0x2f, 0x61, 
  0x64, 0x64, 0x5f, 0x31, 0x3b, 0x66, 0x75, 0x6e, 0x63, 0x74, 0x69, 0x6f, 
  0x6e, 0x61, 0x6c, 0x5f, 0x31, 0x2f, 0x63, 0x6f, 0x6e, 0x76, 0x31, 0x64, 
  0x5f, 0x31, 0x5f, 0x32, 0x2f, 0x63, 0x6f, 0x6e, 0x76, 0x6f, 0x6c, 0x75, 
  0x74, 0x69, 0x6f, 0x6e, 0x2f, 0x53, 0x71, 0x75, 0x65, 0x65, 0x7a, 0x65, 
  0x3b, 0x66, 0x75, 0x6e, 0x63, 0x74, 0x69, 0x6f, 0x6e, 0x61, 0x6c, 0x5f, 
  0x31, 0x2f, 0x62, 0x61, 0x74, 0x63, 0x68, 0x5f, 0x6e, 0x6f, 0x72, 0x6d, 
  0x61, 0x6c, 0x69, 0x7a, 0x61, 0x74, 0x69, 0x6f, 0x6e, 0x5f, 0x32, 0x5f, 
  0x31, 0x2f, 0x62, 0x61, 0x74, 0x63, 0x68, 0x6e, 0x6f, 0x72, 0x6d, 0x2f, 
  0x6d, 0x75, 0x6c, 0x5f, 0x31, 0x3b, 0x66, 0x75, 0x6e, 0x63, 0x74, 0x69, 
  0x6f, 0x6e, 0x61, 0x6c, 0x5f, 0x31, 0x2f, 0x62, 0x61, 0x74, 0x63, 0x68, 
  0x5f, 0x6e, 0x6f, 0x72, 0x6d, 0x61, 0x6c, 0x69, 0x7a, 0x61, 0x74, 0x69, 
  0x6f, 0x6e, 0x5f, 0x32, 0x5f, 0x31, 0x2f, 0x62, 0x61, 0x74, 0x63, 0x68, 
  0x6e, 0x6f, 0x72, 0x6d, 0x2f, 0x6d, 0x75, 0x6c, 0x3b, 0x66, 0x75, 0x6e, 
  0x63, 0x74, 0x69, 0x6f, 0x6e, 0x61, 0x6c, 0x5f, 0x31, 0x2f, 0x62, 0x61, 
  0x74, 0x63, 0x68, 0x5f, 0x6e, 0x6f, 0x72, 0x6d, 0x61, 0x6c, 0x69, 0x7a, 
  0x61, 0x74, 0x69, 0x6f, 0x6e, 0x5f, 0x32, 0x5f, 0x31, 0x2f, 0x62, 0x61, 
  0x74, 0x63, 0x68, 0x6e, 0x6f, 0x72, 0x6d, 0x2f, 0x73, 0x75, 0x62, 0x3b, 
  0x66, 0x75, 0x6e, 0x63, 0x74, 0x69, 0x6f, 0x6e, 0x61, 0x6c, 0x5f, 0x31, 
  0x2f, 0x63, 0x6f, 0x6e, 0x76, 0x31, 0x64, 0x5f, 0x31, 0x5f, 0x32, 0x2f, 
  0x63, 0x6f, 0x6e, 0x76, 0x6f, 0x6c, 0x75, 0x74, 0x69, 0x6f, 0x6e, 0x31, 
  0x00, 0x00, 0x00, 0x00, 0x04, 0x00, 0x00, 0x00, 0x01, 0x00, 0x00, 0x00, 
  0x01, 0x00, 0x00, 0x00, 0x80, 0x00, 0x00, 0x00, 0x20, 0x00, 0x00, 0x00, 
  0xe6, 0xe4, 0xff, 0xff, 0x00, 0x00, 0x00, 0x01, 0x18, 0x00, 0x00, 0x00, 
  0x28, 0x00, 0x00, 0x00, 0x44, 0x00, 0x00, 0x00, 0x14, 0x00, 0x00, 0x00, 
  0x00, 0x00, 0x00, 0x09, 0x6c, 0x00, 0x00, 0x00, 0x04, 0x00, 0x00, 0x00, 
  0xff, 0xff, 0xff, 0xff, 0x01, 0x00, 0x00, 0x00, 0x80, 0x00, 0x00, 0x00, 
  0x20, 0x00, 0x00, 0x00, 0xd4, 0xe4, 0xff, 0xff, 0x08, 0x00, 0x00, 0x00, 
  0x10, 0x00, 0x00, 0x00, 0x01, 0x00, 0x00, 0x00, 0x80, 0xff, 0xff, 0xff, 
  0xff, 0xff, 0xff, 0xff, 0x01, 0x00, 0x00, 0x00, 0x8e, 0x02, 0x32, 0x3d, 
  0x2e, 0x00, 0x00, 0x00, 0x66, 0x75, 0x6e, 0x63, 0x74, 0x69, 0x6f, 0x6e, 
  0x61, 0x6c, 0x5f, 0x31, 0x2f, 0x63, 0x6f, 0x6e, 0x76, 0x31, 0x64, 0x5f, 
  0x31, 0x5f, 0x32, 0x2f, 0x63, 0x6f, 0x6e, 0x76, 0x6f, 0x6c, 0x75, 0x74, 
  0x69, 0x6f, 0x6e, 0x2f, 0x45, 0x78, 0x70, 0x61, 0x6e, 0x64, 0x44, 0x69, 
  0x6d, 0x73, 0x00, 0x00, 0x04, 0x00, 0x00, 0x00, 0x01, 0x00, 0x00, 0x00, 
  0x01, 0x00, 0x00, 0x00, 0x80, 0x00, 0x00, 0x00, 0x20, 0x00, 0x00, 0x00, 
  0x82, 0xe5, 0xff, 0xff, 0x00, 0x00, 0x00, 0x01, 0x18, 0x00, 0x00, 0x00, 
  0x24, 0x00, 0x00, 0x00, 0x44, 0x00, 0x00, 0x00, 0x13, 0x00, 0x00, 0x00, 
  0x00, 0x00, 0x00, 0x09, 0x58, 0x01, 0x00, 0x00, 0x03, 0x00, 0x00, 0x00, 
  0xff, 0xff, 0xff, 0xff, 0x80, 0x00, 0x00, 0x00, 0x20, 0x00, 0x00, 0x00, 
  0x6c, 0xe5, 0xff, 0xff, 0x08, 0x00, 0x00, 0x00, 0x14, 0x00, 0x00, 0x00, 
  0x01, 0x00, 0x00, 0x00, 0x80, 0xff, 0xff, 0xff, 0xff, 0xff, 0xff, 0xff, 
  0x00, 0x00, 0x00, 0x00, 0x01, 0x00, 0x00, 0x00, 0x8e, 0x02, 0x32, 0x3d, 
  0x18, 0x01, 0x00, 0x00, 0x66, 0x75, 0x6e, 0x63, 0x74, 0x69, 0x6f, 0x6e, 
  0x61, 0x6c, 0x5f, 0x31, 0x2f, 0x61, 0x63, 0x74, 0x69, 0x76, 0x61, 0x74, 
  0x69, 0x6f, 0x6e, 0x5f, 0x31, 0x5f, 0x32, 0x2f, 0x52, 0x65, 0x6c, 0x75, 
  0x3b, 0x66, 0x75, 0x6e, 0x63, 0x74, 0x69, 0x6f, 0x6e, 0x61, 0x6c, 0x5f, 
  0x31, 0x2f, 0x62, 0x61, 0x74, 0x63, 0x68, 0x5f, 0x6e, 0x6f, 0x72, 0x6d, 
  0x61, 0x6c, 0x69, 0x7a, 0x61, 0x74, 0x69, 0x6f, 0x6e, 0x5f, 0x31, 0x5f, 
  0x32, 0x2f, 0x62, 0x61, 0x74, 0x63, 0x68, 0x6e, 0x6f, 0x72, 0x6d, 0x2f, 
  0x61, 0x64, 0x64, 0x5f, 0x31, 0x3b, 0x66, 0x75, 0x6e, 0x63, 0x74, 0x69, 
  0x6f, 0x6e, 0x61, 0x6c, 0x5f, 0x31, 0x2f, 0x64, 0x65, 0x70, 0x74, 0x68, 
  0x77, 0x69, 0x73, 0x65, 0x5f, 0x63, 0x6f, 0x6e, 0x76, 0x31, 0x64, 0x5f, 
  0x31, 0x2f, 0x53, 0x71, 0x75, 0x65, 0x65, 0x7a, 0x65, 0x3b, 0x66, 0x75, 
  0x6e, 0x63, 0x74, 0x69, 0x6f, 0x6e, 0x61, 0x6c, 0x5f, 0x31, 0x2f, 0x62, 
  0x61, 0x74, 0x63, 0x68, 0x5f, 0x6e, 0x6f, 0x72, 0x6d, 0x61, 0x6c, 0x69, 
  0x7a, 0x61, 0x74, 0x69, 0x6f, 0x6e, 0x5f, 0x31, 0x5f, 0x32, 0x2f, 0x62, 
  0x61, 0x74, 0x63, 0x68, 0x6e, 0x6f, 0x72, 0x6d, 0x2f, 0x6d, 0x75, 0x6c, 
  0x5f, 0x31, 0x3b, 0x66, 0x75, 0x6e, 0x63, 0x74, 0x69, 0x6f, 0x6e, 0x61, 
  0x6c, 0x5f, 0x31, 0x2f, 0x62, 0x61, 0x74, 0x63, 0x68, 0x5f, 0x6e, 0x6f, 
  0x72, 0x6d, 0x61, 0x6c, 0x69, 0x7a, 0x61, 0x74, 0x69, 0x6f, 0x6e, 0x5f, 
  0x31, 0x5f, 0x32, 0x2f, 0x62, 0x61, 0x74, 0x63, 0x68, 0x6e, 0x6f, 0x72, 
  0x6d, 0x2f, 0x6d, 0x75, 0x6c, 0x3b, 0x66, 0x75, 0x6e, 0x63, 0x74, 0x69, 
  0x6f, 0x6e, 0x61, 0x6c, 0x5f, 0x31, 0x2f, 0x62, 0x61, 0x74, 0x63, 0x68, 
  0x5f, 0x6e, 0x6f, 0x72, 0x6d, 0x61, 0x6c, 0x69, 0x7a, 0x61, 0x74, 0x69, 
  0x6f, 0x6e, 0x5f, 0x31, 0x5f, 0x32, 0x2f, 0x62, 0x61, 0x74, 0x63, 0x68, 
  0x6e, 0x6f, 0x72, 0x6d, 0x2f, 0x73, 0x75, 0x62, 0x00, 0x00, 0x00, 0x00, 
  0x03, 0x00, 0x00, 0x00, 0x01, 0x00, 0x00, 0x00, 0x80, 0x00, 0x00, 0x00, 
  0x20, 0x00, 0x00, 0x00, 0x06, 0xe7, 0xff, 0xff, 0x00, 0x00, 0x00, 0x01, 
  0x18, 0x00, 0x00, 0x00, 0x28, 0x00, 0x00, 0x00, 0x44, 0x00, 0x00, 0x00, 
  0x12, 0x00, 0x00, 0x00, 0x00, 0x00, 0x00, 0x09, 0x80, 0x01, 0x00, 0x00, 
  0x04, 0x00, 0x00, 0x00, 0xff, 0xff, 0xff, 0xff, 0x01, 0x00, 0x00, 0x00, 
  0x80, 0x00, 0x00, 0x00, 0x20, 0x00, 0x00, 0x00, 0xf4, 0xe6, 0xff, 0xff, 
  0x08, 0x00, 0x00, 0x00, 0x10, 0x00, 0x00, 0x00, 0x01, 0x00, 0x00, 0x00, 
  0x80, 0xff, 0xff, 0xff, 0xff, 0xff, 0xff, 0xff, 0x01, 0x00, 0x00, 0x00, 
  0x8e, 0x02, 0x32, 0x3d, 0x43, 0x01, 0x00, 0x00, 0x66, 0x75, 0x6e, 0x63, 
  0x74, 0x69, 0x6f, 0x6e, 0x61, 0x6c, 0x5f, 0x31, 0x2f, 0x61, 0x63, 0x74, 
  0x69, 0x76, 0x61, 0x74, 0x69, 0x6f, 0x6e, 0x5f, 0x31, 0x5f, 0x32, 0x2f, 
  0x52, 0x65, 0x6c, 0x75, 0x3b, 0x66, 0x75, 0x6e, 0x63, 0x74, 0x69, 0x6f, 
  0x6e, 0x61, 0x6c, 0x5f, 0x31, 0x2f, 0x62, 0x61, 0x74, 0x63, 0x68, 0x5f, 
  0x6e, 0x6f, 0x72, 0x6d, 0x61, 0x6c, 0x69, 0x7a, 0x61, 0x74, 0x69, 0x6f, 
  0x6e, 0x5f, 0x31, 0x5f, 0x32, 0x2f, 0x62, 0x61, 0x74, 0x63, 0x68, 0x6e, 
  0x6f, 0x72, 0x6d, 0x2f, 0x61, 0x64, 0x64, 0x5f, 0x31, 0x3b, 0x66, 0x75, 
  0x6e, 0x63, 0x74, 0x69, 0x6f, 0x6e, 0x61, 0x6c, 0x5f, 0x31, 0x2f, 0x64, 
  0x65, 0x70, 0x74, 0x68, 0x77, 0x69, 0x73, 0x65, 0x5f, 0x63, 0x6f, 0x6e, 
  0x76, 0x31, 0x64, 0x5f, 0x31, 0x2f, 0x53, 0x71, 0x75, 0x65, 0x65, 0x7a, 
  0x65, 0x3b, 0x66, 0x75, 0x6e, 0x63, 0x74, 0x69, 0x6f, 0x6e, 0x61, 0x6c, 
  0x5f, 0x31, 0x2f, 0x62, 0x61, 0x74, 0x63, 0x68, 0x5f, 0x6e, 0x6f, 0x72, 
  0x6d, 0x61, 0x6c, 0x69, 0x7a, 0x61, 0x74, 0x69, 0x6f, 0x6e, 0x5f, 0x31, 
  0x5f, 0x32, 0x2f, 0x62, 0x61, 0x74, 0x63, 0x68, 0x6e, 0x6f, 0x72, 0x6d, 
  0x2f, 0x6d, 0x75, 0x6c, 0x5f, 0x31, 0x3b, 0x66, 0x75, 0x6e, 0x63, 0x74, 
  0x69, 0x6f, 0x6e, 0x61, 0x6c, 0x5f, 0x31, 0x2f, 0x62, 0x61, 0x74, 0x63, 
  0x68, 0x5f, 0x6e, 0x6f, 0x72, 0x6d, 0x61, 0x6c, 0x69, 0x7a, 0x61, 0x74, 
  0x69, 0x6f, 0x6e, 0x5f, 0x31, 0x5f, 0x32, 0x2f, 0x62, 0x61, 0x74, 0x63, 
  0x68, 0x6e, 0x6f, 0x72, 0x6d, 0x2f, 0x6d, 0x75, 0x6c, 0x3b, 0x66, 0x75, 
  0x6e, 0x63, 0x74, 0x69, 0x6f, 0x6e, 0x61, 0x6c, 0x5f, 0x31, 0x2f, 0x62, 
  0x61, 0x74, 0x63, 0x68, 0x5f, 0x6e, 0x6f, 0x72, 0x6d, 0x61, 0x6c, 0x69, 
  0x7a, 0x61, 0x74, 0x69, 0x6f, 0x6e, 0x5f, 0x31, 0x5f, 0x32, 0x2f, 0x62, 
  0x61, 0x74, 0x63, 0x68, 0x6e, 0x6f, 0x72, 0x6d, 0x2f, 0x73, 0x75, 0x62, 
  0x3b, 0x66, 0x75, 0x6e, 0x63, 0x74, 0x69, 0x6f, 0x6e, 0x61, 0x6c, 0x5f, 
  0x31, 0x2f, 0x64, 0x65, 0x70, 0x74, 0x68, 0x77, 0x69, 0x73, 0x65, 0x5f, 
  0x63, 0x6f, 0x6e, 0x76, 0x31, 0x64, 0x5f, 0x31, 0x2f, 0x64, 0x65, 0x70, 
  0x74, 0x68, 0x77, 0x69, 0x73, 0x65, 0x31, 0x00, 0x04, 0x00, 0x00, 0x00, 
  0x01, 0x00, 0x00, 0x00, 0x01, 0x00, 0x00, 0x00, 0x80, 0x00, 0x00, 0x00, 
  0x20, 0x00, 0x00, 0x00, 0xb6, 0xe8, 0xff, 0xff, 0x00, 0x00, 0x00, 0x01, 
  0x18, 0x00, 0x00, 0x00, 0x28, 0x00, 0x00, 0x00, 0x48, 0x00, 0x00, 0x00, 
  0x11, 0x00, 0x00, 0x00, 0x00, 0x00, 0x00, 0x09, 0x6c, 0x00, 0x00, 0x00, 
  0x04, 0x00, 0x00, 0x00, 0xff, 0xff, 0xff, 0xff, 0x01, 0x00, 0x00, 0x00, 
  0x80, 0x00, 0x00, 0x00, 0x20, 0x00, 0x00, 0x00, 0xa4, 0xe8, 0xff, 0xff, 
  0x08, 0x00, 0x00, 0x00, 0x14, 0x00, 0x00, 0x00, 0x01, 0x00, 0x00, 0x00, 
  0x80, 0xff, 0xff, 0xff, 0xff, 0xff, 0xff, 0xff, 0x00, 0x00, 0x00, 0x00, 
  0x01, 0x00, 0x00, 0x00, 0x56, 0x42, 0x00, 0x3d, 0x2a, 0x00, 0x00, 0x00, 
  0x66, 0x75, 0x6e, 0x63, 0x74, 0x69, 0x6f, 0x6e, 0x61, 0x6c, 0x5f, 0x31, 
  0x2f, 0x64, 0x65, 0x70, 0x74, 0x68, 0x77, 0x69, 0x73, 0x65, 0x5f, 0x63, 
  0x6f, 0x6e, 0x76, 0x31, 0x64, 0x5f, 0x31, 0x2f, 0x45, 0x78, 0x70, 0x61, 
  0x6e, 0x64, 0x44, 0x69, 0x6d, 0x73, 0x00, 0x00, 0x04, 0x00, 0x00, 0x00, 
  0x01, 0x00, 0x00, 0x00, 0x01, 0x00, 0x00, 0x00, 0x80, 0x00, 0x00, 0x00, 
  0x20, 0x00, 0x00, 0x00, 0x52, 0xe9, 0xff, 0xff, 0x00, 0x00, 0x00, 0x01, 
  0x18, 0x00, 0x00, 0x00, 0x24, 0x00, 0x00, 0x00, 0x44, 0x00, 0x00, 0x00, 
  0x10, 0x00, 0x00, 0x00, 0x00, 0x00, 0x00, 0x09, 0x50, 0x01, 0x00, 0x00, 
  0x03, 0x00, 0x00, 0x00, 0xff, 0xff, 0xff, 0xff, 0x80, 0x00, 0x00, 0x00, 
  0x20, 0x00, 0x00, 0x00, 0x3c, 0xe9, 0xff, 0xff, 0x08, 0x00, 0x00, 0x00, 
  0x14, 0x00, 0x00, 0x00, 0x01, 0x00, 0x00, 0x00, 0x80, 0xff, 0xff, 0xff, 
  0xff, 0xff, 0xff, 0xff, 0x00, 0x00, 0x00, 0x00, 0x01, 0x00, 0x00, 0x00, 
  0x56, 0x42, 0x00, 0x3d, 0x10, 0x01, 0x00, 0x00, 0x66, 0x75, 0x6e, 0x63, 
  0x74, 0x69, 0x6f, 0x6e, 0x61, 0x6c, 0x5f, 0x31, 0x2f, 0x61, 0x63, 0x74, 
  0x69, 0x76, 0x61, 0x74, 0x69, 0x6f, 0x6e, 0x5f, 0x31, 0x2f, 0x52, 0x65, 
  0x6c, 0x75, 0x3b, 0x66, 0x75, 0x6e, 0x63, 0x74, 0x69, 0x6f, 0x6e, 0x61, 
  0x6c, 0x5f, 0x31, 0x2f, 0x62, 0x61, 0x74, 0x63, 0x68, 0x5f, 0x6e, 0x6f, 
  0x72, 0x6d, 0x61, 0x6c, 0x69, 0x7a, 0x61, 0x74, 0x69, 0x6f, 0x6e, 0x5f, 
  0x31, 0x2f, 0x62, 0x61, 0x74, 0x63, 0x68, 0x6e, 0x6f, 0x72, 0x6d, 0x2f, 
  0x61, 0x64, 0x64, 0x5f, 0x31, 0x3b, 0x66, 0x75, 0x6e, 0x63, 0x74, 0x69, 
  0x6f, 0x6e, 0x61, 0x6c, 0x5f, 0x31, 0x2f, 0x63, 0x6f, 0x6e, 0x76, 0x31, 
  0x64, 0x5f, 0x31, 0x2f, 0x63, 0x6f, 0x6e, 0x76, 0x6f, 0x6c, 0x75, 0x74, 
  0x69, 0x6f, 0x6e, 0x2f, 0x53, 0x71, 0x75, 0x65, 0x65, 0x7a, 0x65, 0x3b, 
  0x66, 0x75, 0x6e, 0x63, 0x74, 0x69, 0x6f, 0x6e, 0x61, 0x6c, 0x5f, 0x31, 
  0x2f, 0x62, 0x61, 0x74, 0x63, 0x68, 0x5f, 0x6e, 0x6f, 0x72, 0x6d, 0x61, 
  0x6c, 0x69, 0x7a, 0x61, 0x74, 0x69, 0x6f, 0x6e, 0x5f, 0x31, 0x2f, 0x62, 
  0x61, 0x74, 0x63, 0x68, 0x6e, 0x6f, 0x72, 0x6d, 0x2f, 0x6d, 0x75, 0x6c, 
  0x5f, 0x31, 0x3b, 0x66, 0x75, 0x6e, 0x63, 0x74, 0x69, 0x6f, 0x6e, 0x61, 
  0x6c, 0x5f, 0x31, 0x2f, 0x62, 0x61, 0x74, 0x63, 0x68, 0x5f, 0x6e, 0x6f, 
  0x72, 0x6d, 0x61, 0x6c, 0x69, 0x7a, 0x61, 0x74, 0x69, 0x6f, 0x6e, 0x5f, 
  0x31, 0x2f, 0x62, 0x61, 0x74, 0x63, 0x68, 0x6e, 0x6f, 0x72, 0x6d, 0x2f, 
  0x6d, 0x75, 0x6c, 0x3b, 0x66, 0x75, 0x6e, 0x63, 0x74, 0x69, 0x6f, 0x6e, 
  0x61, 0x6c, 0x5f, 0x31, 0x2f, 0x62, 0x61, 0x74, 0x63, 0x68, 0x5f, 0x6e, 
  0x6f, 0x72, 0x6d, 0x61, 0x6c, 0x69, 0x7a, 0x61, 0x74, 0x69, 0x6f, 0x6e, 
  0x5f, 0x31, 0x2f, 0x62, 0x61, 0x74, 0x63, 0x68, 0x6e, 0x6f, 0x72, 0x6d, 
  0x2f, 0x73, 0x75, 0x62, 0x00, 0x00, 0x00, 0x00, 0x03, 0x00, 0x00, 0x00, 
  0x01, 0x00, 0x00, 0x00, 0x80, 0x00, 0x00, 0x00, 0x20, 0x00, 0x00, 0x00, 
  0xce, 0xea, 0xff, 0xff, 0x00, 0x00, 0x00, 0x01, 0x18, 0x00, 0x00, 0x00, 
  0x28, 0x00, 0x00, 0x00, 0x44, 0x00, 0x00, 0x00, 0x0f, 0x00, 0x00, 0x00, 
  0x00, 0x00, 0x00, 0x09, 0x70, 0x01, 0x00, 0x00, 0x04, 0x00, 0x00, 0x00, 
  0xff, 0xff, 0xff, 0xff, 0x01, 0x00, 0x00, 0x00, 0x80, 0x00, 0x00, 0x00, 
  0x20, 0x00, 0x00, 0x00, 0xbc, 0xea, 0xff, 0xff, 0x08, 0x00, 0x00, 0x00, 
  0x10, 0x00, 0x00, 0x00, 0x01, 0x00, 0x00, 0x00, 0x80, 0xff, 0xff, 0xff, 
  0xff, 0xff, 0xff, 0xff, 0x01, 0x00, 0x00, 0x00, 0x56, 0x42, 0x00, 0x3d, 
  0x33, 0x01, 0x00, 0x00, 0x66, 0x75, 0x6e, 0x63, 0x74, 0x69, 0x6f, 0x6e, 
  0x61, 0x6c, 0x5f, 0x31, 0x2f, 0x61, 0x63, 0x74, 0x69, 0x76, 0x61, 0x74, 
  0x69, 0x6f, 0x6e, 0x5f, 0x31, 0x2f, 0x52, 0x65, 0x6c, 0x75, 0x3b, 0x66, 
  0x75, 0x6e, 0x63, 0x74, 0x69, 0x6f, 0x6e, 0x61, 0x6c, 0x5f, 0x31, 0x2f, 
  0x62, 0x61, 0x74, 0x63, 0x68, 0x5f, 0x6e, 0x6f, 0x72, 0x6d, 0x61, 0x6c, 
  0x69, 0x7a, 0x61, 0x74, 0x69, 0x6f, 0x6e, 0x5f, 0x31, 0x2f, 0x62, 0x61, 
  0x74, 0x63, 0x68, 0x6e, 0x6f, 0x72, 0x6d, 0x2f, 0x61, 0x64, 0x64, 0x5f, 
  0x31, 0x3b, 0x66, 0x75, 0x6e, 0x63, 0x74, 0x69, 0x6f, 0x6e, 0x61, 0x6c, 
  0x5f, 0x31, 0x2f, 0x63, 0x6f, 0x6e, 0x76, 0x31, 0x64, 0x5f, 0x31, 0x2f, 
  0x63, 0x6f, 0x6e, 0x76, 0x6f, 0x6c, 0x75, 0x74, 0x69, 0x6f, 0x6e, 0x2f, 
  0x53, 0x71, 0x75, 0x65, 0x65, 0x7a, 0x65, 0x3b, 0x66, 0x75, 0x6e, 0x63, 
  0x74, 0x69, 0x6f, 0x6e, 0x61, 0x6c, 0x5f, 0x31, 0x2f, 0x62, 0x61, 0x74, 
  0x63, 0x68, 0x5f, 0x6e, 0x6f, 0x72, 0x6d, 0x61, 0x6c, 0x69, 0x7a, 0x61, 
  0x74, 0x69, 0x6f, 0x6e, 0x5f, 0x31, 0x2f, 0x62, 0x61, 0x74, 0x63, 0x68, 
  0x6e, 0x6f, 0x72, 0x6d, 0x2f, 0x6d, 0x75, 0x6c, 0x5f, 0x31, 0x3b, 0x66, 
  0x75, 0x6e, 0x63, 0x74, 0x69, 0x6f, 0x6e, 0x61, 0x6c, 0x5f, 0x31, 0x2f, 
  0x62, 0x61, 0x74, 0x63, 0x68, 0x5f, 0x6e, 0x6f, 0x72, 0x6d, 0x61, 0x6c, 
  0x69, 0x7a, 0x61, 0x74, 0x69, 0x6f, 0x6e, 0x5f, 0x31, 0x2f, 0x62, 0x61, 
  0x74, 0x63, 0x68, 0x6e, 0x6f, 0x72, 0x6d, 0x2f, 0x6d, 0x75, 0x6c, 0x3b, 
  0x66, 0x75, 0x6e, 0x63, 0x74, 0x69, 0x6f, 0x6e, 0x61, 0x6c, 0x5f, 0x31, 
  0x2f, 0x62, 0x61, 0x74, 0x63, 0x68, 0x5f, 0x6e, 0x6f, 0x72, 0x6d, 0x61, 
  0x6c, 0x69, 0x7a, 0x61, 0x74, 0x69, 0x6f, 0x6e, 0x5f, 0x31, 0x2f, 0x62, 
  0x61, 0x74, 0x63, 0x68, 0x6e, 0x6f, 0x72, 0x6d, 0x2f, 0x73, 0x75, 0x62, 
  0x3b, 0x66, 0x75, 0x6e, 0x63, 0x74, 0x69, 0x6f, 0x6e, 0x61, 0x6c, 0x5f, 
  0x31, 0x2f, 0x63, 0x6f, 0x6e, 0x76, 0x31, 0x64, 0x5f, 0x31, 0x2f, 0x63, 
  0x6f, 0x6e, 0x76, 0x6f, 0x6c, 0x75, 0x74, 0x69, 0x6f, 0x6e, 0x31, 0x00, 
  0x04, 0x00, 0x00, 0x00, 0x01, 0x00, 0x00, 0x00, 0x01, 0x00, 0x00, 0x00, 
  0x80, 0x00, 0x00, 0x00, 0x20, 0x00, 0x00, 0x00, 0x6e, 0xec, 0xff, 0xff, 
  0x00, 0x00, 0x00, 0x01, 0x18, 0x00, 0x00, 0x00, 0x28, 0x00, 0x00, 0x00, 
  0x48, 0x00, 0x00, 0x00, 0x0e, 0x00, 0x00, 0x00, 0x00, 0x00, 0x00, 0x09, 
  0x70, 0x00, 0x00, 0x00, 0x04, 0x00, 0x00, 0x00, 0xff, 0xff, 0xff, 0xff, 
  0x01, 0x00, 0x00, 0x00, 0x80, 0x00, 0x00, 0x00, 0x09, 0x00, 0x00, 0x00, 
  0x5c, 0xec, 0xff, 0xff, 0x08, 0x00, 0x00, 0x00, 0x14, 0x00, 0x00, 0x00, 
  0x01, 0x00, 0x00, 0x00, 0x0d, 0x00, 0x00, 0x00, 0x00, 0x00, 0x00, 0x00, 
  0x00, 0x00, 0x00, 0x00, 0x01, 0x00, 0x00, 0x00, 0xa1, 0x63, 0x7c, 0x3d, 
  0x2c, 0x00, 0x00, 0x00, 0x66, 0x75, 0x6e, 0x63, 0x74, 0x69, 0x6f, 0x6e, 
  0x61, 0x6c, 0x5f, 0x31, 0x2f, 0x63, 0x6f, 0x6e, 0x76, 0x31, 0x64, 0x5f, 
  0x31, 0x2f, 0x63, 0x6f, 0x6e, 0x76, 0x6f, 0x6c, 0x75, 0x74, 0x69, 0x6f, 
  0x6e, 0x2f, 0x45, 0x78, 0x70, 0x61, 0x6e, 0x64, 0x44, 0x69, 0x6d, 0x73, 
  0x00, 0x00, 0x00, 0x00, 0x04, 0x00, 0x00, 0x00, 0x01, 0x00, 0x00, 0x00, 
  0x01, 0x00, 0x00, 0x00, 0x80, 0x00, 0x00, 0x00, 0x09, 0x00, 0x00, 0x00, 
  0x62, 0xed, 0xff, 0xff, 0x00, 0x00, 0x00, 0x01, 0x14, 0x00, 0x00, 0x00, 
  0xa4, 0x01, 0x00, 0x00, 0x0d, 0x00, 0x00, 0x00, 0x00, 0x00, 0x00, 0x09, 
  0x4c, 0x02, 0x00, 0x00, 0xe4, 0xec, 0xff, 0xff, 0x08, 0x00, 0x00, 0x00, 
  0x08, 0x01, 0x00, 0x00, 0x20, 0x00, 0x00, 0x00, 0x00, 0x00, 0x00, 0x00, 
  0x00, 0x00, 0x00, 0x00, 0x00, 0x00, 0x00, 0x00, 0x00, 0x00, 0x00, 0x00, 
  0x00, 0x00, 0x00, 0x00, 0x00, 0x00, 0x00, 0x00, 0x00, 0x00, 0x00, 0x00, 
  0x00, 0x00, 0x00, 0x00, 0x00, 0x00, 0x00, 0x00, 0x00, 0x00, 0x00, 0x00, 
  0x00, 0x00, 0x00, 0x00, 0x00, 0x00, 0x00, 0x00, 0x00, 0x00, 0x00, 0x00, 
  0x00, 0x00, 0x00, 0x00, 0x00, 0x00, 0x00, 0x00, 0x00, 0x00, 0x00, 0x00, 
  0x00, 0x00, 0x00, 0x00, 0x00, 0x00, 0x00, 0x00, 0x00, 0x00, 0x00, 0x00, 
  0x00, 0x00, 0x00, 0x00, 0x00, 0x00, 0x00, 0x00, 0x00, 0x00, 0x00, 0x00, 
  0x00, 0x00, 0x00, 0x00, 0x00, 0x00, 0x00, 0x00, 0x00, 0x00, 0x00, 0x00, 
  0x00, 0x00, 0x00, 0x00, 0x00, 0x00, 0x00, 0x00, 0x00, 0x00, 0x00, 0x00, 
  0x00, 0x00, 0x00, 0x00, 0x00, 0x00, 0x00, 0x00, 0x00, 0x00, 0x00, 0x00, 
  0x00, 0x00, 0x00, 0x00, 0x00, 0x00, 0x00, 0x00, 0x00, 0x00, 0x00, 0x00, 
  0x00, 0x00, 0x00, 0x00, 0x00, 0x00, 0x00, 0x00, 0x00, 0x00, 0x00, 0x00, 
  0x00, 0x00, 0x00, 0x00, 0x00, 0x00, 0x00, 0x00, 0x00, 0x00, 0x00, 0x00, 
  0x00, 0x00, 0x00, 0x00, 0x00, 0x00, 0x00, 0x00, 0x00, 0x00, 0x00, 0x00, 
  0x00, 0x00, 0x00, 0x00, 0x00, 0x00, 0x00, 0x00, 0x00, 0x00, 0x00, 0x00, 
  0x00, 0x00, 0x00, 0x00, 0x00, 0x00, 0x00, 0x00, 0x00, 0x00, 0x00, 0x00, 
  0x00, 0x00, 0x00, 0x00, 0x00, 0x00, 0x00, 0x00, 0x00, 0x00, 0x00, 0x00, 
  0x00, 0x00, 0x00, 0x00, 0x00, 0x00, 0x00, 0x00, 0x00, 0x00, 0x00, 0x00, 
  0x00, 0x00, 0x00, 0x00, 0x00, 0x00, 0x00, 0x00, 0x00, 0x00, 0x00, 0x00, 
  0x00, 0x00, 0x00, 0x00, 0x00, 0x00, 0x00, 0x00, 0x00, 0x00, 0x00, 0x00, 
  0x00, 0x00, 0x00, 0x00, 0x00, 0x00, 0x00, 0x00, 0x00, 0x00, 0x00, 0x00, 
  0x20, 0x00, 0x00, 0x00, 0xdd, 0x5d, 0xb3, 0x3a, 0x60, 0x56, 0x7f, 0x3b, 
  0x47, 0x1b, 0x31, 0x3b, 0x4f, 0x39, 0xd1, 0x3a, 0x5c, 0xc4, 0x14, 0x3b, 
  0xbc, 0x29, 0x33, 0x3b, 0x73, 0x52, 0xee, 0x3a, 0xce, 0x4c, 0xfd, 0x3a, 
  0x8c, 0xb4, 0xd4, 0x3a, 0x50, 0x9e, 0xfe, 0x3a, 0xe0, 0x67, 0x5d, 0x3b, 
  0xa2, 0x31, 0xf4, 0x3a, 0xe5, 0xce, 0x7e, 0x3b, 0xab, 0x94, 0x65, 0x3b, 
  0x3c, 0x2e, 0x30, 0x3b, 0x48, 0x7a, 0x18, 0x3b, 0x89, 0x6c, 0x27, 0x3b, 
  0xcf, 0xfa, 0x4d, 0x3b, 0x8e, 0xff, 0x03, 0x3b, 0x84, 0x92, 0x02, 0x3b, 
  0x98, 0x48, 0x38, 0x3b, 0xf8, 0xa6, 0x20, 0x3b, 0x03, 0x92, 0x7b, 0x3b, 
  0x1d, 0x31, 0x3c, 0x3b, 0x57, 0xcd, 0x0b, 0x3b, 0xcf, 0xe6, 0x08, 0x3b, 
  0x5c, 0x07, 0x02, 0x3b, 0xc6, 0x37, 0x04, 0x3b, 0x83, 0xcb, 0x9c, 0x3b, 
  0x84, 0x41, 0xfb, 0x3a, 0x14, 0xe1, 0x58, 0x3b, 0xb6, 0xae, 0x20, 0x3b, 
  0xaf, 0x00, 0x00, 0x00, 0x66, 0x75, 0x6e, 0x63, 0x74, 0x69, 0x6f, 0x6e, 
  0x61, 0x6c, 0x5f, 0x31, 0x2f, 0x62, 0x61, 0x74, 0x63, 0x68, 0x5f, 0x6e, 
  0x6f, 0x72, 0x6d, 0x61, 0x6c, 0x69, 0x7a, 0x61, 0x74, 0x69, 0x6f, 0x6e, 
  0x5f, 0x31, 0x2f, 0x62, 0x61, 0x74, 0x63, 0x68, 0x6e, 0x6f, 0x72, 0x6d, 
  0x2f, 0x6d, 0x75, 0x6c, 0x5f, 0x31, 0x3b, 0x66, 0x75, 0x6e, 0x63, 0x74, 
  0x69, 0x6f, 0x6e, 0x61, 0x6c, 0x5f, 0x31, 0x2f, 0x63, 0x6f, 0x6e, 0x76, 
  0x31, 0x64, 0x5f, 0x31, 0x2f, 0x63, 0x6f, 0x6e, 0x76, 0x6f, 0x6c, 0x75, 
  0x74, 0x69, 0x6f, 0x6e, 0x2f, 0x53, 0x71, 0x75, 0x65, 0x65, 0x7a, 0x65, 
  0x3b, 0x66, 0x75, 0x6e, 0x63, 0x74, 0x69, 0x6f, 0x6e, 0x61, 0x6c, 0x5f, 
  0x31, 0x2f, 0x62, 0x61, 0x74, 0x63, 0x68, 0x5f, 0x6e, 0x6f, 0x72, 0x6d, 
  0x61, 0x6c, 0x69, 0x7a, 0x61, 0x74, 0x69, 0x6f, 0x6e, 0x5f, 0x31, 0x2f, 
  0x62, 0x61, 0x74, 0x63, 0x68, 0x6e, 0x6f, 0x72, 0x6d, 0x2f, 0x6d, 0x75, 
  0x6c, 0x3b, 0x66, 0x75, 0x6e, 0x63, 0x74, 0x69, 0x6f, 0x6e, 0x61, 0x6c, 
  0x5f, 0x31, 0x2f, 0x63, 0x6f, 0x6e, 0x76, 0x31, 0x64, 0x5f, 0x31, 0x2f, 
  0x63, 0x6f, 0x6e, 0x76, 0x6f, 0x6c, 0x75, 0x74, 0x69, 0x6f, 0x6e, 0x00, 
  0x04, 0x00, 0x00, 0x00, 0x20, 0x00, 0x00, 0x00, 0x01, 0x00, 0x00, 0x00, 
  0x05, 0x00, 0x00, 0x00, 0x09, 0x00, 0x00, 0x00, 0xda, 0xef, 0xff, 0xff, 
  0x00, 0x00, 0x00, 0x01, 0x14, 0x00, 0x00, 0x00, 0xa4, 0x01, 0x00, 0x00, 
  0x0c, 0x00, 0x00, 0x00, 0x00, 0x00, 0x00, 0x02, 0xd0, 0x02, 0x00, 0x00, 
  0x5c, 0xef, 0xff, 0xff, 0x08, 0x00, 0x00, 0x00, 0x08, 0x01, 0x00, 0x00, 
  0x20, 0x00, 0x00, 0x00, 0x00, 0x00, 0x00, 0x00, 0x00, 0x00, 0x00, 0x00, 
  0x00, 0x00, 0x00, 0x00, 0x00, 0x00, 0x00, 0x00, 0x00, 0x00, 0x00, 0x00, 
  0x00, 0x00, 0x00, 0x00, 0x00, 0x00, 0x00, 0x00, 0x00, 0x00, 0x00, 0x00, 
  0x00, 0x00, 0x00, 0x00, 0x00, 0x00, 0x00, 0x00, 0x00, 0x00, 0x00, 0x00, 
  0x00, 0x00, 0x00, 0x00, 0x00, 0x00, 0x00, 0x00, 0x00, 0x00, 0x00, 0x00, 
  0x00, 0x00, 0x00, 0x00, 0x00, 0x00, 0x00, 0x00, 0x00, 0x00, 0x00, 0x00, 
  0x00, 0x00, 0x00, 0x00, 0x00, 0x00, 0x00, 0x00, 0x00, 0x00, 0x00, 0x00, 
  0x00, 0x00, 0x00, 0x00, 0x00, 0x00, 0x00, 0x00, 0x00, 0x00, 0x00, 0x00, 
  0x00, 0x00, 0x00, 0x00, 0x00, 0x00, 0x00, 0x00, 0x00, 0x00, 0x00, 0x00, 
  0x00, 0x00, 0x00, 0x00, 0x00, 0x00, 0x00, 0x00, 0x00, 0x00, 0x00, 0x00, 
  0x00, 0x00, 0x00, 0x00, 0x00, 0x00, 0x00, 0x00, 0x00, 0x00, 0x00, 0x00, 
  0x00, 0x00, 0x00, 0x00, 0x00, 0x00, 0x00, 0x00, 0x00, 0x00, 0x00, 0x00, 
  0x00, 0x00, 0x00, 0x00, 0x00, 0x00, 0x00, 0x00, 0x00, 0x00, 0x00, 0x00, 
  0x00, 0x00, 0x00, 0x00, 0x00, 0x00, 0x00, 0x00, 0x00, 0x00, 0x00, 0x00, 
  0x00, 0x00, 0x00, 0x00, 0x00, 0x00, 0x00, 0x00, 0x00, 0x00, 0x00, 0x00, 
  0x00, 0x00, 0x00, 0x00, 0x00, 0x00, 0x00, 0x00, 0x00, 0x00, 0x00, 0x00, 
  0x00, 0x00, 0x00, 0x00, 0x00, 0x00, 0x00, 0x00, 0x00, 0x00, 0x00, 0x00, 
  0x00, 0x00, 0x00, 0x00, 0x00, 0x00, 0x00, 0x00, 0x00, 0x00, 0x00, 0x00, 
  0x00, 0x00, 0x00, 0x00, 0x00, 0x00, 0x00, 0x00, 0x00, 0x00, 0x00, 0x00, 
  0x00, 0x00, 0x00, 0x00, 0x00, 0x00, 0x00, 0x00, 0x00, 0x00, 0x00, 0x00, 
  0x00, 0x00, 0x00, 0x00, 0x00, 0x00, 0x00, 0x00, 0x00, 0x00, 0x00, 0x00, 
  0x00, 0x00, 0x00, 0x00, 0x00, 0x00, 0x00, 0x00, 0x20, 0x00, 0x00, 0x00, 
  0x34, 0xd6, 0xb0, 0x38, 0x65, 0xbc, 0x7b, 0x39, 0xc7, 0x9b, 0x2e, 0x39, 
  0xd7, 0x45, 0xce, 0x38, 0x30, 0xab, 0x12, 0x39, 0xcf, 0xa2, 0x30, 0x39, 
  0xe9, 0xf5, 0xea, 0x38, 0x2f, 0xba, 0xf9, 0x38, 0x81, 0xb4, 0xd1, 0x38, 
  0xee, 0x06, 0xfb, 0x38, 0x6b, 0x48, 0x5a, 0x39, 0xe4, 0xbf, 0xf0, 0x38, 
  0xd4, 0x36, 0x7b, 0x39, 0xb1, 0x57, 0x62, 0x39, 0x14, 0xb2, 0x2d, 0x39, 
  0xb6, 0x53, 0x16, 0x39, 0xff, 0x0f, 0x25, 0x39, 0x0d, 0x13, 0x4b, 0x39, 
  0xef, 0x22, 0x02, 0x39, 0x0b, 0xbb, 0x00, 0x39, 0x2e, 0xaf, 0x35, 0x39, 
  0xe2, 0x62, 0x1e, 0x39, 0xa3, 0x05, 0x78, 0x39, 0x96, 0x89, 0x39, 0x39, 
  0x8a, 0xd4, 0x09, 0x39, 0x7b, 0xf8, 0x06, 0x39, 0xd9, 0x31, 0x00, 0x39, 
  0x5c, 0x5a, 0x02, 0x39, 0x5a, 0x95, 0x9a, 0x39, 0x46, 0xb6, 0xf7, 0x38, 
  0xf7, 0xd1, 0x55, 0x39, 0x84, 0x6a, 0x1e, 0x39, 0x32, 0x01, 0x00, 0x00, 
  0x66, 0x75, 0x6e, 0x63, 0x74, 0x69, 0x6f, 0x6e, 0x61, 0x6c, 0x5f, 0x31, 
  0x2f, 0x61, 0x63, 0x74, 0x69, 0x76, 0x61, 0x74, 0x69, 0x6f, 0x6e, 0x5f, 
  0x31, 0x2f, 0x52, 0x65, 0x6c, 0x75, 0x3b, 0x66, 0x75, 0x6e, 0x63, 0x74, 
  0x69, 0x6f, 0x6e, 0x61, 0x6c, 0x5f, 0x31, 0x2f, 0x62, 0x61, 0x74, 0x63, 
  0x68, 0x5f, 0x6e, 0x6f, 0x72, 0x6d, 0x61, 0x6c, 0x69, 0x7a, 0x61, 0x74, 
  0x69, 0x6f, 0x6e, 0x5f, 0x31, 0x2f, 0x62, 0x61, 0x74, 0x63, 0x68, 0x6e, 
  0x6f, 0x72, 0x6d, 0x2f, 0x61, 0x64, 0x64, 0x5f, 0x31, 0x3b, 0x66, 0x75, 
  0x6e, 0x63, 0x74, 0x69, 0x6f, 0x6e, 0x61, 0x6c, 0x5f, 0x31, 0x2f, 0x63, 
  0x6f, 0x6e, 0x76, 0x31, 0x64, 0x5f, 0x31, 0x2f, 0x63, 0x6f, 0x6e, 0x76, 
  0x6f, 0x6c, 0x75, 0x74, 0x69, 0x6f, 0x6e, 0x2f, 0x53, 0x71, 0x75, 0x65, 
  0x65, 0x7a, 0x65, 0x3b, 0x66, 0x75, 0x6e, 0x63, 0x74, 0x69, 0x6f, 0x6e, 
  0x61, 0x6c, 0x5f, 0x31, 0x2f, 0x62, 0x61, 0x74, 0x63, 0x68, 0x5f, 0x6e, 
  0x6f, 0x72, 0x6d, 0x61, 0x6c, 0x69, 0x7a, 0x61, 0x74, 0x69, 0x6f, 0x6e, 
  0x5f, 0x31, 0x2f, 0x62, 0x61, 0x74, 0x63, 0x68, 0x6e, 0x6f, 0x72, 0x6d, 
  0x2f, 0x6d, 0x75, 0x6c, 0x5f, 0x31, 0x3b, 0x66, 0x75, 0x6e, 0x63, 0x74, 
  0x69, 0x6f, 0x6e, 0x61, 0x6c, 0x5f, 0x31, 0x2f, 0x62, 0x61, 0x74, 0x63, 
  0x68, 0x5f, 0x6e, 0x6f, 0x72, 0x6d, 0x61, 0x6c, 0x69, 0x7a, 0x61, 0x74, 
  0x69, 0x6f, 0x6e, 0x5f, 0x31, 0x2f, 0x62, 0x61, 0x74, 0x63, 0x68, 0x6e, 
  0x6f, 0x72, 0x6d, 0x2f, 0x6d, 0x75, 0x6c, 0x3b, 0x66, 0x75, 0x6e, 0x63, 
  0x74, 0x69, 0x6f, 0x6e, 0x61, 0x6c, 0x5f, 0x31, 0x2f, 0x62, 0x61, 0x74, 
  0x63, 0x68, 0x5f, 0x6e, 0x6f, 0x72, 0x6d, 0x61, 0x6c, 0x69, 0x7a, 0x61, 
  0x74, 0x69, 0x6f, 0x6e, 0x5f, 0x31, 0x2f, 0x62, 0x61, 0x74, 0x63, 0x68, 
  0x6e, 0x6f, 0x72, 0x6d, 0x2f, 0x73, 0x75, 0x62, 0x3b, 0x66, 0x75, 0x6e, 
  0x63, 0x74, 0x69, 0x6f, 0x6e, 0x61, 0x6c, 0x5f, 0x31, 0x2f, 0x63, 0x6f, 
  0x6e, 0x76, 0x31, 0x64, 0x5f, 0x31, 0x2f, 0x63, 0x6f, 0x6e, 0x76, 0x6f, 
  0x6c, 0x75, 0x74, 0x69, 0x6f, 0x6e, 0x00, 0x00, 0x01, 0x00, 0x00, 0x00, 
  0x20, 0x00, 0x00, 0x00, 0x00, 0x00, 0x16, 0x00, 0x1e, 0x00, 0x18, 0x00, 
  0x17, 0x00, 0x10, 0x00, 0x0c, 0x00, 0x08, 0x00, 0x00, 0x00, 0x00, 0x00, 
  0x00, 0x00, 0x07, 0x00, 0x16, 0x00, 0x00, 0x00, 0x00, 0x00, 0x00, 0x01, 
  0x28, 0x00, 0x00, 0x00, 0xc0, 0x01, 0x00, 0x00, 0x0b, 0x00, 0x00, 0x00, 
  0x00, 0x00, 0x00, 0x09, 0x74, 0x02, 0x00, 0x00, 0x00, 0x00, 0x12, 0x00, 
  0x10, 0x00, 0x00, 0x00, 0x00, 0x00, 0x0c, 0x00, 0x08, 0x00, 0x00, 0x00, 
  0x00, 0x00, 0x04, 0x00, 0x12, 0x00, 0x00, 0x00, 0x03, 0x00, 0x00, 0x00, 
  0x08, 0x00, 0x00, 0x00, 0x0c, 0x01, 0x00, 0x00, 0x20, 0x00, 0x00, 0x00, 
  0x00, 0x00, 0x00, 0x00, 0x00, 0x00, 0x00, 0x00, 0x00, 0x00, 0x00, 0x00, 
  0x00, 0x00, 0x00, 0x00, 0x00, 0x00, 0x00, 0x00, 0x00, 0x00, 0x00, 0x00, 
  0x00, 0x00, 0x00, 0x00, 0x00, 0x00, 0x00, 0x00, 0x00, 0x00, 0x00, 0x00, 
  0x00, 0x00, 0x00, 0x00, 0x00, 0x00, 0x00, 0x00, 0x00, 0x00, 0x00, 0x00, 
  0x00, 0x00, 0x00, 0x00, 0x00, 0x00, 0x00, 0x00, 0x00, 0x00, 0x00, 0x00, 
  0x00, 0x00, 0x00, 0x00, 0x00, 0x00, 0x00, 0x00, 0x00, 0x00, 0x00, 0x00, 
  0x00, 0x00, 0x00, 0x00, 0x00, 0x00, 0x00, 0x00, 0x00, 0x00, 0x00, 0x00, 
  0x00, 0x00, 0x00, 0x00, 0x00, 0x00, 0x00, 0x00, 0x00, 0x00, 0x00, 0x00, 
  0x00, 0x00, 0x00, 0x00, 0x00, 0x00, 0x00, 0x00, 0x00, 0x00, 0x00, 0x00, 
  0x00, 0x00, 0x00, 0x00, 0x00, 0x00, 0x00, 0x00, 0x00, 0x00, 0x00, 0x00, 
  0x00, 0x00, 0x00, 0x00, 0x00, 0x00, 0x00, 0x00, 0x00, 0x00, 0x00, 0x00, 
  0x00, 0x00, 0x00, 0x00, 0x00, 0x00, 0x00, 0x00, 0x00, 0x00, 0x00, 0x00, 
  0x00, 0x00, 0x00, 0x00, 0x00, 0x00, 0x00, 0x00, 0x00, 0x00, 0x00, 0x00, 
  0x00, 0x00, 0x00, 0x00, 0x00, 0x00, 0x00, 0x00, 0x00, 0x00, 0x00, 0x00, 
  0x00, 0x00, 0x00, 0x00, 0x00, 0x00, 0x00, 0x00, 0x00, 0x00, 0x00, 0x00, 
  0x00, 0x00, 0x00, 0x00, 0x00, 0x00, 0x00, 0x00, 0x00, 0x00, 0x00, 0x00, 
  0x00, 0x00, 0x00, 0x00, 0x00, 0x00, 0x00, 0x00, 0x00, 0x00, 0x00, 0x00, 
  0x00, 0x00, 0x00, 0x00, 0x00, 0x00, 0x00, 0x00, 0x00, 0x00, 0x00, 0x00, 
  0x00, 0x00, 0x00, 0x00, 0x00, 0x00, 0x00, 0x00, 0x00, 0x00, 0x00, 0x00, 
  0x00, 0x00, 0x00, 0x00, 0x00, 0x00, 0x00, 0x00, 0x00, 0x00, 0x00, 0x00, 
  0x00, 0x00, 0x00, 0x00, 0x00, 0x00, 0x00, 0x00, 0x00, 0x00, 0x00, 0x00, 
  0x00, 0x00, 0x00, 0x00, 0x00, 0x00, 0x00, 0x00, 0x20, 0x00, 0x00, 0x00, 
  0xfc, 0xb6, 0x54, 0x3c, 0xa0, 0xb1, 0xc1, 0x3b, 0x51, 0x91, 0x19, 0x3c, 
  0xab, 0x71, 0xf1, 0x3b, 0x79, 0x00, 0xad, 0x3b, 0x8f, 0xfa, 0x47, 0x3c, 
  0x6d, 0x45, 0xc7, 0x3b, 0x47, 0xb7, 0xb9, 0x3b, 0xa1, 0xa0, 0xd4, 0x3c, 
  0xba, 0x1e, 0x8a, 0x3c, 0x26, 0x81, 0x3d, 0x3c, 0x37, 0xa1, 0x21, 0x3c, 
  0xad, 0xe3, 0xd7, 0x3b, 0x73, 0x7c, 0x15, 0x3c, 0x67, 0xe7, 0xc3, 0x3b, 
  0x97, 0x0c, 0x8b, 0x3c, 0x07, 0x6a, 0x2d, 0x3c, 0x34, 0xc7, 0xd9, 0x3b, 
  0x01, 0xb0, 0x33, 0x3c, 0x1d, 0x60, 0x83, 0x3c, 0x9d, 0xd1, 0x9b, 0x3c, 
  0xf1, 0x4f, 0xb4, 0x3b, 0x45, 0x36, 0xc6, 0x3b, 0xfa, 0x7e, 0x12, 0x3c, 
  0xba, 0x6b, 0x07, 0x3c, 0x01, 0xfc, 0x71, 0x3c, 0x45, 0x08, 0x3c, 0x3c, 
  0xee, 0x51, 0xb5, 0x3c, 0xc5, 0xd9, 0xcb, 0x3b, 0xa8, 0xe4, 0x22, 0x3c, 
  0xcb, 0xe3, 0x93, 0x3b, 0x24, 0xdf, 0x25, 0x3c, 0xb9, 0x00, 0x00, 0x00, 
  0x66, 0x75, 0x6e, 0x63, 0x74, 0x69, 0x6f, 0x6e, 0x61, 0x6c, 0x5f, 0x31, 
  0x2f, 0x62, 0x61, 0x74, 0x63, 0x68, 0x5f, 0x6e, 0x6f, 0x72, 0x6d, 0x61, 
  0x6c, 0x69, 0x7a, 0x61, 0x74, 0x69, 0x6f, 0x6e, 0x5f, 0x31, 0x5f, 0x32, 
  0x2f, 0x62, 0x61, 0x74, 0x63, 0x68, 0x6e, 0x6f, 0x72, 0x6d, 0x2f, 0x6d, 
  0x75, 0x6c, 0x5f, 0x31, 0x3b, 0x66, 0x75, 0x6e, 0x63, 0x74, 0x69, 0x6f, 
  0x6e, 0x61, 0x6c, 0x5f, 0x31, 0x2f, 0x64, 0x65, 0x70, 0x74, 0x68, 0x77, 
  0x69, 0x73, 0x65, 0x5f, 0x63, 0x6f, 0x6e, 0x76, 0x31, 0x64, 0x5f, 0x31, 
  0x2f, 0x53, 0x71, 0x75, 0x65, 0x65, 0x7a, 0x65, 0x3b, 0x66, 0x75, 0x6e, 
  0x63, 0x74, 0x69, 0x6f, 0x6e, 0x61, 0x6c, 0x5f, 0x31, 0x2f, 0x62, 0x61, 
  0x74, 0x63, 0x68, 0x5f, 0x6e, 0x6f, 0x72, 0x6d, 0x61, 0x6c, 0x69, 0x7a, 
  0x61, 0x74, 0x69, 0x6f, 0x6e, 0x5f, 0x31, 0x5f, 0x32, 0x2f, 0x62, 0x61, 
  0x74, 0x63, 0x68, 0x6e, 0x6f, 0x72, 0x6d, 0x2f, 0x6d, 0x75, 0x6c, 0x3b, 
  0x66, 0x75, 0x6e, 0x63, 0x74, 0x69, 0x6f, 0x6e, 0x61, 0x6c, 0x5f, 0x31, 
  0x2f, 0x64, 0x65, 0x70, 0x74, 0x68, 0x77, 0x69, 0x73, 0x65, 0x5f, 0x63, 
  0x6f, 0x6e, 0x76, 0x31, 0x64, 0x5f, 0x31, 0x2f, 0x64, 0x65, 0x70, 0x74, 
  0x68, 0x77, 0x69, 0x73, 0x65, 0x00, 0x00, 0x00, 0x04, 0x00, 0x00, 0x00, 
  0x01, 0x00, 0x00, 0x00, 0x01, 0x00, 0x00, 0x00, 0x05, 0x00, 0x00, 0x00, 
  0x20, 0x00, 0x00, 0x00, 0x82, 0xf5, 0xff, 0xff, 0x00, 0x00, 0x00, 0x01, 
  0x14, 0x00, 0x00, 0x00, 0xa4, 0x01, 0x00, 0x00, 0x0a, 0x00, 0x00, 0x00, 
  0x00, 0x00, 0x00, 0x02, 0xe0, 0x02, 0x00, 0x00, 0x04, 0xf5, 0xff, 0xff, 
  0x08, 0x00, 0x00, 0x00, 0x08, 0x01, 0x00, 0x00, 0x20, 0x00, 0x00, 0x00, 
  0x00, 0x00, 0x00, 0x00, 0x00, 0x00, 0x00, 0x00, 0x00, 0x00, 0x00, 0x00, 
  0x00, 0x00, 0x00, 0x00, 0x00, 0x00, 0x00, 0x00, 0x00, 0x00, 0x00, 0x00, 
  0x00, 0x00, 0x00, 0x00, 0x00, 0x00, 0x00, 0x00, 0x00, 0x00, 0x00, 0x00, 
  0x00, 0x00, 0x00, 0x00, 0x00, 0x00, 0x00, 0x00, 0x00, 0x00, 0x00, 0x00, 
  0x00, 0x00, 0x00, 0x00, 0x00, 0x00, 0x00, 0x00, 0x00, 0x00, 0x00, 0x00, 
  0x00, 0x00, 0x00, 0x00, 0x00, 0x00, 0x00, 0x00, 0x00, 0x00, 0x00, 0x00, 
  0x00, 0x00, 0x00, 0x00, 0x00, 0x00, 0x00, 0x00, 0x00, 0x00, 0x00, 0x00, 
  0x00, 0x00, 0x00, 0x00, 0x00, 0x00, 0x00, 0x00, 0x00, 0x00, 0x00, 0x00, 
  0x00, 0x00, 0x00, 0x00, 0x00, 0x00, 0x00, 0x00, 0x00, 0x00, 0x00, 0x00, 
  0x00, 0x00, 0x00, 0x00, 0x00, 0x00, 0x00, 0x00, 0x00, 0x00, 0x00, 0x00, 
  0x00, 0x00, 0x00, 0x00, 0x00, 0x00, 0x00, 0x00, 0x00, 0x00, 0x00, 0x00, 
  0x00, 0x00, 0x00, 0x00, 0x00, 0x00, 0x00, 0x00, 0x00, 0x00, 0x00, 0x00, 
  0x00, 0x00, 0x00, 0x00, 0x00, 0x00, 0x00, 0x00, 0x00, 0x00, 0x00, 0x00, 
  0x00, 0x00, 0x00, 0x00, 0x00, 0x00, 0x00, 0x00, 0x00, 0x00, 0x00, 0x00, 
  0x00, 0x00, 0x00, 0x00, 0x00, 0x00, 0x00, 0x00, 0x00, 0x00, 0x00, 0x00, 
  0x00, 0x00, 0x00, 0x00, 0x00, 0x00, 0x00, 0x00, 0x00, 0x00, 0x00, 0x00, 
  0x00, 0x00, 0x00, 0x00, 0x00, 0x00, 0x00, 0x00, 0x00, 0x00, 0x00, 0x00, 
  0x00, 0x00, 0x00, 0x00, 0x00, 0x00, 0x00, 0x00, 0x00, 0x00, 0x00, 0x00, 
  0x00, 0x00, 0x00, 0x00, 0x00, 0x00, 0x00, 0x00, 0x00, 0x00, 0x00, 0x00, 
  0x00, 0x00, 0x00, 0x00, 0x00, 0x00, 0x00, 0x00, 0x00, 0x00, 0x00, 0x00, 
  0x00, 0x00, 0x00, 0x00, 0x00, 0x00, 0x00, 0x00, 0x00, 0x00, 0x00, 0x00, 
  0x00, 0x00, 0x00, 0x00, 0x20, 0x00, 0x00, 0x00, 0x39, 0x25, 0xd5, 0x39, 
  0x02, 0x16, 0x42, 0x39, 0xe7, 0xe0, 0x99, 0x39, 0xcc, 0xee, 0x71, 0x39, 
  0x21, 0x5a, 0x2d, 0x39, 0x33, 0x62, 0xc8, 0x39, 0xb3, 0xac, 0x47, 0x39, 
  0x86, 0x17, 0x3a, 0x39, 0xd3, 0x0e, 0x55, 0x3a, 0x4f, 0x66, 0x0a, 0x3a, 
  0x5c, 0xe3, 0xbd, 0x39, 0xfb, 0xf4, 0xa1, 0x39, 0x8f, 0x53, 0x58, 0x39, 
  0xec, 0xc9, 0x95, 0x39, 0xee, 0x4c, 0x44, 0x39, 0xa7, 0x54, 0x0b, 0x3a, 
  0xe6, 0xc3, 0xad, 0x39, 0x11, 0x38, 0x5a, 0x39, 0x20, 0x0d, 0xb4, 0x39, 
  0x33, 0xa4, 0x03, 0x3a, 0x5e, 0x22, 0x1c, 0x3a, 0x63, 0xad, 0x34, 0x39, 
  0xfe, 0x9c, 0x46, 0x39, 0xe6, 0xca, 0x92, 0x39, 0xe9, 0xb1, 0x87, 0x39, 
  0x6a, 0x79, 0xf2, 0x39, 0xb8, 0x69, 0xbc, 0x39, 0xe6, 0xaf, 0x35, 0x3a, 
  0x6a, 0x43, 0x4c, 0x39, 0x13, 0x39, 0xa3, 0x39, 0x70, 0x30, 0x14, 0x39, 
  0x1b, 0x35, 0xa6, 0x39, 0x42, 0x01, 0x00, 0x00, 0x66, 0x75, 0x6e, 0x63, 
  0x74, 0x69, 0x6f, 0x6e, 0x61, 0x6c, 0x5f, 0x31, 0x2f, 0x61, 0x63, 0x74, 
  0x69, 0x76, 0x61, 0x74, 0x69, 0x6f, 0x6e, 0x5f, 0x31, 0x5f, 0x32, 0x2f, 
  0x52, 0x65, 0x6c, 0x75, 0x3b, 0x66, 0x75, 0x6e, 0x63, 0x74, 0x69, 0x6f, 
  0x6e, 0x61, 0x6c, 0x5f, 0x31, 0x2f, 0x62, 0x61, 0x74, 0x63, 0x68, 0x5f, 
  0x6e, 0x6f, 0x72, 0x6d, 0x61, 0x6c, 0x69, 0x7a, 0x61, 0x74, 0x69, 0x6f, 
  0x6e, 0x5f, 0x31, 0x5f, 0x32, 0x2f, 0x62, 0x61, 0x74, 0x63, 0x68, 0x6e, 
  0x6f, 0x72, 0x6d, 0x2f, 0x61, 0x64, 0x64, 0x5f, 0x31, 0x3b, 0x66, 0x75, 
  0x6e, 0x63, 0x74, 0x69, 0x6f, 0x6e, 0x61, 0x6c, 0x5f, 0x31, 0x2f, 0x64, 
  0x65, 0x70, 0x74, 0x68, 0x77, 0x69, 0x73, 0x65, 0x5f, 0x63, 0x6f, 0x6e, 
  0x76, 0x31, 0x64, 0x5f, 0x31, 0x2f, 0x53, 0x71, 0x75, 0x65, 0x65, 0x7a, 
  0x65, 0x3b, 0x66, 0x75, 0x6e, 0x63, 0x74, 0x69, 0x6f, 0x6e, 0x61, 0x6c, 
  0x5f, 0x31, 0x2f, 0x62, 0x61, 0x74, 0x63, 0x68, 0x5f, 0x6e, 0x6f, 0x72, 
  0x6d, 0x61, 0x6c, 0x69, 0x7a, 0x61, 0x74, 0x69, 0x6f, 0x6e, 0x5f, 0x31, 
  0x5f, 0x32, 0x2f, 0x62, 0x61, 0x74, 0x63, 0x68, 0x6e, 0x6f, 0x72, 0x6d, 
  0x2f, 0x6d, 0x75, 0x6c, 0x5f, 0x31, 0x3b, 0x66, 0x75, 0x6e, 0x63, 0x74, 
  0x69, 0x6f, 0x6e, 0x61, 0x6c, 0x5f, 0x31, 0x2f, 0x62, 0x61, 0x74, 0x63, 
  0x68, 0x5f, 0x6e, 0x6f, 0x72, 0x6d, 0x61, 0x6c, 0x69, 0x7a, 0x61, 0x74, 
  0x69, 0x6f, 0x6e, 0x5f, 0x31, 0x5f, 0x32, 0x2f, 0x62, 0x61, 0x74, 0x63, 
  0x68, 0x6e, 0x6f, 0x72, 0x6d, 0x2f, 0x6d, 0x75, 0x6c, 0x3b, 0x66, 0x75, 
  0x6e, 0x63, 0x74, 0x69, 0x6f, 0x6e, 0x61, 0x6c, 0x5f, 0x31, 0x2f, 0x62, 
  0x61, 0x74, 0x63, 0x68, 0x5f, 0x6e, 0x6f, 0x72, 0x6d, 0x61, 0x6c, 0x69, 
  0x7a, 0x61, 0x74, 0x69, 0x6f, 0x6e, 0x5f, 0x31, 0x5f, 0x32, 0x2f, 0x62, 
  0x61, 0x74, 0x63, 0x68, 0x6e, 0x6f, 0x72, 0x6d, 0x2f, 0x73, 0x75, 0x62, 
  0x3b, 0x66, 0x75, 0x6e, 0x63, 0x74, 0x69, 0x6f, 0x6e, 0x61, 0x6c, 0x5f, 
  0x31, 0x2f, 0x64, 0x65, 0x70, 0x74, 0x68, 0x77, 0x69, 0x73, 0x65, 0x5f, 
  0x63, 0x6f, 0x6e, 0x76, 0x31, 0x64, 0x5f, 0x31, 0x2f, 0x64, 0x65, 0x70, 
  0x74, 0x68, 0x77, 0x69, 0x73, 0x65, 0x00, 0x00, 0x01, 0x00, 0x00, 0x00, 
  0x20, 0x00, 0x00, 0x00, 0x82, 0xf8, 0xff, 0xff, 0x00, 0x00, 0x00, 0x01, 
  0x14, 0x00, 0x00, 0x00, 0xa4, 0x01, 0x00, 0x00, 0x09, 0x00, 0x00, 0x00, 
  0x00, 0x00, 0x00, 0x09, 0x54, 0x02, 0x00, 0x00, 0x04, 0xf8, 0xff, 0xff, 
  0x08, 0x00, 0x00, 0x00, 0x08, 0x01, 0x00, 0x00, 0x20, 0x00, 0x00, 0x00, 
  0x00, 0x00, 0x00, 0x00, 0x00, 0x00, 0x00, 0x00, 0x00, 0x00, 0x00, 0x00, 
  0x00, 0x00, 0x00, 0x00, 0x00, 0x00, 0x00, 0x00, 0x00, 0x00, 0x00, 0x00, 
  0x00, 0x00, 0x00, 0x00, 0x00, 0x00, 0x00, 0x00, 0x00, 0x00, 0x00, 0x00, 
  0x00, 0x00, 0x00, 0x00, 0x00, 0x00, 0x00, 0x00, 0x00, 0x00, 0x00, 0x00, 
  0x00, 0x00, 0x00, 0x00, 0x00, 0x00, 0x00, 0x00, 0x00, 0x00, 0x00, 0x00, 
  0x00, 0x00, 0x00, 0x00, 0x00, 0x00, 0x00, 0x00, 0x00, 0x00, 0x00, 0x00, 
  0x00, 0x00, 0x00, 0x00, 0x00, 0x00, 0x00, 0x00, 0x00, 0x00, 0x00, 0x00, 
  0x00, 0x00, 0x00, 0x00, 0x00, 0x00, 0x00, 0x00, 0x00, 0x00, 0x00, 0x00, 
  0x00, 0x00, 0x00, 0x00, 0x00, 0x00, 0x00, 0x00, 0x00, 0x00, 0x00, 0x00, 
  0x00, 0x00, 0x00, 0x00, 0x00, 0x00, 0x00, 0x00, 0x00, 0x00, 0x00, 0x00, 
  0x00, 0x00, 0x00, 0x00, 0x00, 0x00, 0x00, 0x00, 0x00, 0x00, 0x00, 0x00, 
  0x00, 0x00, 0x00, 0x00, 0x00, 0x00, 0x00, 0x00, 0x00, 0x00, 0x00, 0x00, 
  0x00, 0x00, 0x00, 0x00, 0x00, 0x00, 0x00, 0x00, 0x00, 0x00, 0x00, 0x00, 
  0x00, 0x00, 0x00, 0x00, 0x00, 0x00, 0x00, 0x00, 0x00, 0x00, 0x00, 0x00, 
  0x00, 0x00, 0x00, 0x00, 0x00, 0x00, 0x00, 0x00, 0x00, 0x00, 0x00, 0x00, 
  0x00, 0x00, 0x00, 0x00, 0x00, 0x00, 0x00, 0x00, 0x00, 0x00, 0x00, 0x00, 
  0x00, 0x00, 0x00, 0x00, 0x00, 0x00, 0x00, 0x00, 0x00, 0x00, 0x00, 0x00, 
  0x00, 0x00, 0x00, 0x00, 0x00, 0x00, 0x00, 0x00, 0x00, 0x00, 0x00, 0x00, 
  0x00, 0x00, 0x00, 0x00, 0x00, 0x00, 0x00, 0x00, 0x00, 0x00, 0x00, 0x00, 
  0x00, 0x00, 0x00, 0x00, 0x00, 0x00, 0x00, 0x00, 0x00, 0x00, 0x00, 0x00, 
  0x00, 0x00, 0x00, 0x00, 0x00, 0x00, 0x00, 0x00, 0x00, 0x00, 0x00, 0x00, 
  0x00, 0x00, 0x00, 0x00, 0x20, 0x00, 0x00, 0x00, 0x91, 0x39, 0xbf, 0x3b, 
  0x83, 0x95, 0xfc, 0x3b, 0x24, 0x3d, 0xc7, 0x3b, 0x05, 0x5f, 0xe9, 0x3b, 
  0x13, 0xbe, 0xad, 0x3b, 0x50, 0x97, 0xf6, 0x3b, 0x73, 0xc7, 0x97, 0x3b, 
  0xde, 0x4f, 0xb4, 0x3b, 0xe2, 0xe7, 0x91, 0x3b, 0x83, 0x5a, 0x92, 0x3b, 
  0x67, 0x73, 0xfe, 0x3b, 0xc3, 0x6a, 0xaf, 0x3b, 0xd1, 0x6a, 0xc8, 0x3b, 
  0xe9, 0x9d, 0x18, 0x3c, 0x5a, 0xa3, 0x14, 0x3c, 0x88, 0xf9, 0xb4, 0x3b, 
  0xa4, 0xe7, 0x00, 0x3c, 0x0d, 0x53, 0x83, 0x3b, 0x38, 0xef, 0x67, 0x3b, 
  0x8a, 0x70, 0xd7, 0x3b, 0xbf, 0x7d, 0xee, 0x3b, 0xf2, 0xe8, 0xf8, 0x3b, 
  0x6f, 0xc9, 0xdc, 0x3b, 0x07, 0xb0, 0xc3, 0x3b, 0xe0, 0xce, 0xa6, 0x3b, 
  0x3c, 0xc9, 0xab, 0x3b, 0x41, 0x52, 0xf0, 0x3b, 0x10, 0x1e, 0xdb, 0x3b, 
  0xc8, 0x86, 0xb1, 0x3b, 0x50, 0x7b, 0xf4, 0x3b, 0x34, 0x57, 0x03, 0x3c, 
  0x4b, 0xe7, 0x94, 0x3b, 0xb7, 0x00, 0x00, 0x00, 0x66, 0x75, 0x6e, 0x63, 
  0x74, 0x69, 0x6f, 0x6e, 0x61, 0x6c, 0x5f, 0x31, 0x2f, 0x62, 0x61, 0x74, 
  0x63, 0x68, 0x5f, 0x6e, 0x6f, 0x72, 0x6d, 0x61, 0x6c, 0x69, 0x7a, 0x61, 
  0x74, 0x69, 0x6f, 0x6e, 0x5f, 0x32, 0x5f, 0x31, 0x2f, 0x62, 0x61, 0x74, 
  0x63, 0x68, 0x6e, 0x6f, 0x72, 0x6d, 0x2f, 0x6d, 0x75, 0x6c, 0x5f, 0x31, 
  0x3b, 0x66, 0x75, 0x6e, 0x63, 0x74, 0x69, 0x6f, 0x6e, 0x61, 0x6c, 0x5f, 
  0x31, 0x2f, 0x63, 0x6f, 0x6e, 0x76, 0x31, 0x64, 0x5f, 0x31, 0x5f, 0x32, 
  0x2f, 0x63, 0x6f, 0x6e, 0x76, 0x6f, 0x6c, 0x75, 0x74, 0x69, 0x6f, 0x6e, 
  0x2f, 0x53, 0x71, 0x75, 0x65, 0x65, 0x7a, 0x65, 0x3b, 0x66, 0x75, 0x6e, 
  0x63, 0x74, 0x69, 0x6f, 0x6e, 0x61, 0x6c, 0x5f, 0x31, 0x2f, 0x62, 0x61, 
  0x74, 0x63, 0x68, 0x5f, 0x6e, 0x6f, 0x72, 0x6d, 0x61, 0x6c, 0x69, 0x7a, 
  0x61, 0x74, 0x69, 0x6f, 0x6e, 0x5f, 0x32, 0x5f, 0x31, 0x2f, 0x62, 0x61, 
  0x74, 0x63, 0x68, 0x6e, 0x6f, 0x72, 0x6d, 0x2f, 0x6d, 0x75, 0x6c, 0x3b, 
  0x66, 0x75, 0x6e, 0x63, 0x74, 0x69, 0x6f, 0x6e, 0x61, 0x6c, 0x5f, 0x31, 
  0x2f, 0x63, 0x6f, 0x6e, 0x76, 0x31, 0x64, 0x5f, 0x31, 0x5f, 0x32, 0x2f, 
  0x63, 0x6f, 0x6e, 0x76, 0x6f, 0x6c, 0x75, 0x74, 0x69, 0x6f, 0x6e, 0x00, 
  0x04, 0x00, 0x00, 0x00, 0x20, 0x00, 0x00, 0x00, 0x01, 0x00, 0x00, 0x00, 
  0x01, 0x00, 0x00, 0x00, 0x20, 0x00, 0x00, 0x00, 0x02, 0xfb, 0xff, 0xff, 
  0x00, 0x00, 0x00, 0x01, 0x14, 0x00, 0x00, 0x00, 0xa8, 0x01, 0x00, 0x00, 
  0x08, 0x00, 0x00, 0x00, 0x00, 0x00, 0x00, 0x02, 0xc0, 0x02, 0x00, 0x00, 
  0x84, 0xfa, 0xff, 0xff, 0x08, 0x00, 0x00, 0x00, 0x0c, 0x01, 0x00, 0x00, 
  0x20, 0x00, 0x00, 0x00, 0x00, 0x00, 0x00, 0x00, 0x00, 0x00, 0x00, 0x00, 
  0x00, 0x00, 0x00, 0x00, 0x00, 0x00, 0x00, 0x00, 0x00, 0x00, 0x00, 0x00, 
  0x00, 0x00, 0x00, 0x00, 0x00, 0x00, 0x00, 0x00, 0x00, 0x00, 0x00, 0x00, 
  0x00, 0x00, 0x00, 0x00, 0x00, 0x00, 0x00, 0x00, 0x00, 0x00, 0x00, 0x00, 
  0x00, 0x00, 0x00, 0x00, 0x00, 0x00, 0x00, 0x00, 0x00, 0x00, 0x00, 0x00, 
  0x00, 0x00, 0x00, 0x00, 0x00, 0x00, 0x00, 0x00, 0x00, 0x00, 0x00, 0x00, 
  0x00, 0x00, 0x00, 0x00, 0x00, 0x00, 0x00, 0x00, 0x00, 0x00, 0x00, 0x00, 
  0x00, 0x00, 0x00, 0x00, 0x00, 0x00, 0x00, 0x00, 0x00, 0x00, 0x00, 0x00, 
  0x00, 0x00, 0x00, 0x00, 0x00, 0x00, 0x00, 0x00, 0x00, 0x00, 0x00, 0x00, 
  0x00, 0x00, 0x00, 0x00, 0x00, 0x00, 0x00, 0x00, 0x00, 0x00, 0x00, 0x00, 
  0x00, 0x00, 0x00, 0x00, 0x00, 0x00, 0x00, 0x00, 0x00, 0x00, 0x00, 0x00, 
  0x00, 0x00, 0x00, 0x00, 0x00, 0x00, 0x00, 0x00, 0x00, 0x00, 0x00, 0x00, 
  0x00, 0x00, 0x00, 0x00, 0x00, 0x00, 0x00, 0x00, 0x00, 0x00, 0x00, 0x00, 
  0x00, 0x00, 0x00, 0x00, 0x00, 0x00, 0x00, 0x00, 0x00, 0x00, 0x00, 0x00, 
  0x00, 0x00, 0x00, 0x00, 0x00, 0x00, 0x00, 0x00, 0x00, 0x00, 0x00, 0x00, 
  0x00, 0x00, 0x00, 0x00, 0x00, 0x00, 0x00, 0x00, 0x00, 0x00, 0x00, 0x00, 
  0x00, 0x00, 0x00, 0x00, 0x00, 0x00, 0x00, 0x00, 0x00, 0x00, 0x00, 0x00, 
  0x00, 0x00, 0x00, 0x00, 0x00, 0x00, 0x00, 0x00, 0x00, 0x00, 0x00, 0x00, 
  0x00, 0x00, 0x00, 0x00, 0x00, 0x00, 0x00, 0x00, 0x00, 0x00, 0x00, 0x00, 
  0x00, 0x00, 0x00, 0x00, 0x00, 0x00, 0x00, 0x00, 0x00, 0x00, 0x00, 0x00, 
  0x00, 0x00, 0x00, 0x00, 0x00, 0x00, 0x00, 0x00, 0x00, 0x00, 0x00, 0x00, 
  0x00, 0x00, 0x00, 0x00, 0x00, 0x00, 0x00, 0x00, 0x00, 0x00, 0x00, 0x00, 
  0x20, 0x00, 0x00, 0x00, 0xef, 0xf7, 0x84, 0x39, 0x7a, 0xa2, 0xaf, 0x39, 
  0x80, 0x8a, 0x8a, 0x39, 0x66, 0x46, 0xa2, 0x39, 0xca, 0x9f, 0x71, 0x39, 
  0xac, 0x77, 0xab, 0x39, 0x63, 0x14, 0x53, 0x39, 0xaa, 0xc2, 0x7a, 0x39, 
  0x60, 0xe9, 0x4a, 0x39, 0xca, 0x88, 0x4b, 0x39, 0xc8, 0xee, 0xb0, 0x39, 
  0xf7, 0xf3, 0x73, 0x39, 0x45, 0x5c, 0x8b, 0x39, 0xa4, 0x3e, 0xd4, 0x39, 
  0x21, 0xb6, 0xce, 0x39, 0x9e, 0xae, 0x7b, 0x39, 0xb3, 0x44, 0xb3, 0x39, 
  0x1d, 0xa2, 0x36, 0x39, 0xa5, 0x46, 0x21, 0x39, 0x66, 0xce, 0x95, 0x39, 
  0xd0, 0xd5, 0xa5, 0x39, 0x74, 0x14, 0xad, 0x39, 0x43, 0x86, 0x99, 0x39, 
  0x59, 0x12, 0x88, 0x39, 0x04, 0xfb, 0x67, 0x39, 0x45, 0xe7, 0x6e, 0x39, 
  0x97, 0x1b, 0xa7, 0x39, 0x17, 0x5d, 0x98, 0x39, 0xf9, 0xe2, 0x76, 0x39, 
  0x2e, 0x00, 0xaa, 0x39, 0xe3, 0xa7, 0xb6, 0x39, 0x9d, 0x14, 0x4f, 0x39, 
  0x1f, 0x01, 0x00, 0x00, 0x66, 0x75, 0x6e, 0x63, 0x74, 0x69, 0x6f, 0x6e, 
  0x61, 0x6c, 0x5f, 0x31, 0x2f, 0x62, 0x61, 0x74, 0x63, 0x68, 0x5f, 0x6e, 
  0x6f, 0x72, 0x6d, 0x61, 0x6c, 0x69, 0x7a, 0x61, 0x74, 0x69, 0x6f, 0x6e, 
  0x5f, 0x32, 0x5f, 0x31, 0x2f, 0x62, 0x61, 0x74, 0x63, 0x68, 0x6e, 0x6f, 
  0x72, 0x6d, 0x2f, 0x61, 0x64, 0x64, 0x5f, 0x31, 0x3b, 0x66, 0x75, 0x6e, 
  0x63, 0x74, 0x69, 0x6f, 0x6e, 0x61, 0x6c, 0x5f, 0x31, 0x2f, 0x63, 0x6f, 
  0x6e, 0x76, 0x31, 0x64, 0x5f, 0x31, 0x5f, 0x32, 0x2f, 0x63, 0x6f, 0x6e, 
  0x76, 0x6f, 0x6c, 0x75, 0x74, 0x69, 0x6f, 0x6e, 0x2f, 0x53, 0x71, 0x75, 
  0x65, 0x65, 0x7a, 0x65, 0x3b, 0x66, 0x75, 0x6e, 0x63, 0x74, 0x69, 0x6f, 
  0x6e, 0x61, 0x6c, 0x5f, 0x31, 0x2f, 0x62, 0x61, 0x74, 0x63, 0x68, 0x5f, 
  0x6e, 0x6f, 0x72, 0x6d, 0x61, 0x6c, 0x69, 0x7a, 0x61, 0x74, 0x69, 0x6f, 
  0x6e, 0x5f, 0x32, 0x5f, 0x31, 0x2f, 0x62, 0x61, 0x74, 0x63, 0x68, 0x6e, 
  0x6f, 0x72, 0x6d, 0x2f, 0x6d, 0x75, 0x6c, 0x5f, 0x31, 0x3b, 0x66, 0x75, 
  0x6e, 0x63, 0x74, 0x69, 0x6f, 0x6e, 0x61, 0x6c, 0x5f, 0x31, 0x2f, 0x62, 
  0x61, 0x74, 0x63, 0x68, 0x5f, 0x6e, 0x6f, 0x72, 0x6d, 0x61, 0x6c, 0x69, 
  0x7a, 0x61, 0x74, 0x69, 0x6f, 0x6e, 0x5f, 0x32, 0x5f, 0x31, 0x2f, 0x62, 
  0x61, 0x74, 0x63, 0x68, 0x6e, 0x6f, 0x72, 0x6d, 0x2f, 0x6d, 0x75, 0x6c, 
  0x3b, 0x66, 0x75, 0x6e, 0x63, 0x74, 0x69, 0x6f, 0x6e, 0x61, 0x6c, 0x5f, 
  0x31, 0x2f, 0x62, 0x61, 0x74, 0x63, 0x68, 0x5f, 0x6e, 0x6f, 0x72, 0x6d, 
  0x61, 0x6c, 0x69, 0x7a, 0x61, 0x74, 0x69, 0x6f, 0x6e, 0x5f, 0x32, 0x5f, 
  0x31, 0x2f, 0x62, 0x61, 0x74, 0x63, 0x68, 0x6e, 0x6f, 0x72, 0x6d, 0x2f, 
  0x73, 0x75, 0x62, 0x3b, 0x66, 0x75, 0x6e, 0x63, 0x74, 0x69, 0x6f, 0x6e, 
  0x61, 0x6c, 0x5f, 0x31, 0x2f, 0x63, 0x6f, 0x6e, 0x76, 0x31, 0x64, 0x5f, 
  0x31, 0x5f, 0x32, 0x2f, 0x63, 0x6f, 0x6e, 0x76, 0x6f, 0x6c, 0x75, 0x74, 
  0x69, 0x6f, 0x6e, 0x00, 0x01, 0x00, 0x00, 0x00, 0x20, 0x00, 0x00, 0x00, 
  0xe2, 0xfd, 0xff, 0xff, 0x00, 0x00, 0x00, 0x01, 0x14, 0x00, 0x00, 0x00, 
  0x70, 0x00, 0x00, 0x00, 0x07, 0x00, 0x00, 0x00, 0x00, 0x00, 0x00, 0x09, 
  0x84, 0x00, 0x00, 0x00, 0x64, 0xfd, 0xff, 0xff, 0x08, 0x00, 0x00, 0x00, 
  0x3c, 0x00, 0x00, 0x00, 0x06, 0x00, 0x00, 0x00, 0x00, 0x00, 0x00, 0x00, 
  0x00, 0x00, 0x00, 0x00, 0x00, 0x00, 0x00, 0x00, 0x00, 0x00, 0x00, 0x00, 
  0x00, 0x00, 0x00, 0x00, 0x00, 0x00, 0x00, 0x00, 0x00, 0x00, 0x00, 0x00, 
  0x00, 0x00, 0x00, 0x00, 0x00, 0x00, 0x00, 0x00, 0x00, 0x00, 0x00, 0x00, 
  0x00, 0x00, 0x00, 0x00, 0x00, 0x00, 0x00, 0x00, 0x00, 0x00, 0x00, 0x00, 
  0x06, 0x00, 0x00, 0x00, 0x7b, 0x9d, 0x8c, 0x3b, 0x7b, 0x24, 0x90, 0x3b, 
  0x66, 0x7e, 0x94, 0x3b, 0xca, 0x0d, 0x7a, 0x3b, 0xd9, 0x7a, 0x80, 0x3b, 
  0x72, 0xe3, 0x93, 0x3b, 0x1b, 0x00, 0x00, 0x00, 0x66, 0x75, 0x6e, 0x63, 
  0x74, 0x69, 0x6f, 0x6e, 0x61, 0x6c, 0x5f, 0x31, 0x2f, 0x64, 0x65, 0x6e, 
  0x73, 0x65, 0x5f, 0x31, 0x2f, 0x4d, 0x61, 0x74, 0x4d, 0x75, 0x6c, 0x00, 
  0x02, 0x00, 0x00, 0x00, 0x06, 0x00, 0x00, 0x00, 0x20, 0x00, 0x00, 0x00, 
  0x8a, 0xfe, 0xff, 0xff, 0x00, 0x00, 0x00, 0x01, 0x14, 0x00, 0x00, 0x00, 
  0x6c, 0x00, 0x00, 0x00, 0x06, 0x00, 0x00, 0x00, 0x00, 0x00, 0x00, 0x02, 
  0x84, 0x00, 0x00, 0x00, 0x0c, 0xfe, 0xff, 0xff, 0x08, 0x00, 0x00, 0x00, 
  0x38, 0x00, 0x00, 0x00, 0x06, 0x00, 0x00, 0x00, 0x00, 0x00, 0x00, 0x00, 
  0x00, 0x00, 0x00, 0x00, 0x00, 0x00, 0x00, 0x00, 0x00, 0x00, 0x00, 0x00, 
  0x00, 0x00, 0x00, 0x00, 0x00, 0x00, 0x00, 0x00, 0x00, 0x00, 0x00, 0x00, 
  0x00, 0x00, 0x00, 0x00, 0x00, 0x00, 0x00, 0x00, 0x00, 0x00, 0x00, 0x00, 
  0x00, 0x00, 0x00, 0x00, 0x00, 0x00, 0x00, 0x00, 0x06, 0x00, 0x00, 0x00, 
  0x2e, 0x95, 0xce, 0x38, 0xd0, 0xc3, 0xd3, 0x38, 0x4f, 0x28, 0xda, 0x38, 
  0x78, 0xae, 0xb7, 0x38, 0x1e, 0xc1, 0xbc, 0x38, 0xa9, 0x44, 0xd9, 0x38, 
  0x1c, 0x00, 0x00, 0x00, 0x66, 0x75, 0x6e, 0x63, 0x74, 0x69, 0x6f, 0x6e, 
  0x61, 0x6c, 0x5f, 0x31, 0x2f, 0x64, 0x65, 0x6e, 0x73, 0x65, 0x5f, 0x31, 
  0x2f, 0x42, 0x69, 0x61, 0x73, 0x41, 0x64, 0x64, 0x00, 0x00, 0x00, 0x00, 
  0x01, 0x00, 0x00, 0x00, 0x06, 0x00, 0x00, 0x00, 0x2e, 0xff, 0xff, 0xff, 
  0x00, 0x00, 0x00, 0x01, 0x14, 0x00, 0x00, 0x00, 0x14, 0x00, 0x00, 0x00, 
  0x05, 0x00, 0x00, 0x00, 0x00, 0x00, 0x00, 0x02, 0x3c, 0x00, 0x00, 0x00, 
  0x18, 0xff, 0xff, 0xff, 0x2e, 0x00, 0x00, 0x00, 0x66, 0x75, 0x6e, 0x63, 
  0x74, 0x69, 0x6f, 0x6e, 0x61, 0x6c, 0x5f, 0x31, 0x2f, 0x6d, 0x61, 0x78, 
  0x5f, 0x70, 0x6f, 0x6f, 0x6c, 0x69, 0x6e, 0x67, 0x31, 0x64, 0x5f, 0x31, 
  0x2f, 0x4d, 0x61, 0x78, 0x50, 0x6f, 0x6f, 0x6c, 0x31, 0x64, 0x2f, 0x53, 
  0x71, 0x75, 0x65, 0x65, 0x7a, 0x65, 0x00, 0x00, 0x01, 0x00, 0x00, 0x00, 
  0x03, 0x00, 0x00, 0x00, 0x8a, 0xff, 0xff, 0xff, 0x00, 0x00, 0x00, 0x01, 
  0x14, 0x00, 0x00, 0x00, 0x14, 0x00, 0x00, 0x00, 0x04, 0x00, 0x00, 0x00, 
  0x00, 0x00, 0x00, 0x02, 0x1c, 0x00, 0x00, 0x00, 0x74, 0xff, 0xff, 0xff, 
  0x0f, 0x00, 0x00, 0x00, 0x61, 0x72, 0x69, 0x74, 0x68, 0x2e, 0x63, 0x6f, 
  0x6e, 0x73, 0x74, 0x61, 0x6e, 0x74, 0x32, 0x00, 0x00, 0x00, 0x00, 0x00, 
  0xc2, 0xff, 0xff, 0xff, 0x00, 0x00, 0x00, 0x01, 0x14, 0x00, 0x00, 0x00, 
  0x14, 0x00, 0x00, 0x00, 0x03, 0x00, 0x00, 0x00, 0x00, 0x00, 0x00, 0x02, 
  0x1c, 0x00, 0x00, 0x00, 0xac, 0xff, 0xff, 0xff, 0x0e, 0x00, 0x00, 0x00, 
  0x61, 0x72, 0x69, 0x74, 0x68, 0x2e, 0x63, 0x6f, 0x6e, 0x73, 0x74, 0x61, 
  0x6e, 0x74, 0x00, 0x00, 0x01, 0x00, 0x00, 0x00, 0x03, 0x00, 0x00, 0x00, 
  0x00, 0x00, 0x16, 0x00, 0x1c, 0x00, 0x18, 0x00, 0x17, 0x00, 0x10, 0x00, 
  0x0c, 0x00, 0x08, 0x00, 0x00, 0x00, 0x00, 0x00, 0x00, 0x00, 0x07, 0x00, 
  0x16, 0x00, 0x00, 0x00, 0x00, 0x00, 0x00, 0x01, 0x18, 0x00, 0x00, 0x00, 
  0x18, 0x00, 0x00, 0x00, 0x02, 0x00, 0x00, 0x00, 0x00, 0x00, 0x00, 0x02, 
  0x20, 0x00, 0x00, 0x00, 0x04, 0x00, 0x04, 0x00, 0x04, 0x00, 0x00, 0x00, 
  0x0f, 0x00, 0x00, 0x00, 0x61, 0x72, 0x69, 0x74, 0x68, 0x2e, 0x63, 0x6f, 
  0x6e, 0x73, 0x74, 0x61, 0x6e, 0x74, 0x31, 0x00, 0x00, 0x00, 0x00, 0x00, 
  0x00, 0x00, 0x16, 0x00, 0x20, 0x00, 0x1c, 0x00, 0x1b, 0x00, 0x14, 0x00, 
  0x10, 0x00, 0x0c, 0x00, 0x00, 0x00, 0x00, 0x00, 0x08, 0x00, 0x07, 0x00, 
  0x16, 0x00, 0x00, 0x00, 0x00, 0x00, 0x00, 0x01, 0x18, 0x00, 0x00, 0x00, 
  0x30, 0x00, 0x00, 0x00, 0x4c, 0x00, 0x00, 0x00, 0x01, 0x00, 0x00, 0x00, 
  0x00, 0x00, 0x00, 0x09, 0x64, 0x00, 0x00, 0x00, 0x03, 0x00, 0x00, 0x00, 
  0xff, 0xff, 0xff, 0xff, 0x80, 0x00, 0x00, 0x00, 0x09, 0x00, 0x00, 0x00, 
  0x0c, 0x00, 0x0c, 0x00, 0x00, 0x00, 0x00, 0x00, 0x08, 0x00, 0x04, 0x00, 
  0x0c, 0x00, 0x00, 0x00, 0x08, 0x00, 0x00, 0x00, 0x10, 0x00, 0x00, 0x00, 
  0x01, 0x00, 0x00, 0x00, 0x0d, 0x00, 0x00, 0x00, 0x00, 0x00, 0x00, 0x00, 
  0x01, 0x00, 0x00, 0x00, 0xa1, 0x63, 0x7c, 0x3d, 0x1d, 0x00, 0x00, 0x00, 
  0x73, 0x65, 0x72, 0x76, 0x69, 0x6e, 0x67, 0x5f, 0x64, 0x65, 0x66, 0x61, 
  0x75, 0x6c, 0x74, 0x5f, 0x69, 0x6e, 0x70, 0x75, 0x74, 0x5f, 0x6c, 0x61, 
  0x79, 0x65, 0x72, 0x3a, 0x30, 0x00, 0x00, 0x00, 0x03, 0x00, 0x00, 0x00, 
  0x01, 0x00, 0x00, 0x00, 0x80, 0x00, 0x00, 0x00, 0x09, 0x00, 0x00, 0x00, 
  0x08, 0x00, 0x00, 0x00, 0xa4, 0x00, 0x00, 0x00, 0x84, 0x00, 0x00, 0x00, 
  0x68, 0x00, 0x00, 0x00, 0x54, 0x00, 0x00, 0x00, 0x40, 0x00, 0x00, 0x00, 
  0x2c, 0x00, 0x00, 0x00, 0x18, 0x00, 0x00, 0x00, 0x04, 0x00, 0x00, 0x00, 
  0xa4, 0xff, 0xff, 0xff, 0x19, 0x00, 0x00, 0x00, 0x02, 0x00, 0x00, 0x00, 
  0x00, 0x00, 0x00, 0x19, 0xb4, 0xff, 0xff, 0xff, 0x09, 0x00, 0x00, 0x00, 
  0x04, 0x00, 0x00, 0x00, 0x00, 0x00, 0x00, 0x09, 0xc4, 0xff, 0xff, 0xff, 
  0x28, 0x00, 0x00, 0x00, 0x02, 0x00, 0x00, 0x00, 0x00, 0x00, 0x00, 0x28, 
  0xd4, 0xff, 0xff, 0xff, 0x11, 0x00, 0x00, 0x00, 0x02, 0x00, 0x00, 0x00, 
  0x00, 0x00, 0x00, 0x11, 0xe4, 0xff, 0xff, 0xff, 0x04, 0x00, 0x00, 0x00, 
  0x03, 0x00, 0x00, 0x00, 0x00, 0x00, 0x00, 0x04, 0xd8, 0xff, 0xff, 0xff, 
  0x16, 0x00, 0x00, 0x00, 0x00, 0x00, 0x00, 0x16, 0x0c, 0x00, 0x10, 0x00, 
  0x0f, 0x00, 0x00, 0x00, 0x08, 0x00, 0x04, 0x00, 0x0c, 0x00, 0x00, 0x00, 
  0x03, 0x00, 0x00, 0x00, 0x03, 0x00, 0x00, 0x00, 0x00, 0x00, 0x00, 0x03, 
  0x0c, 0x00, 0x0c, 0x00, 0x0b, 0x00, 0x00, 0x00, 0x00, 0x00, 0x04, 0x00, 
  0x0c, 0x00, 0x00, 0x00, 0x46, 0x00, 0x00, 0x00, 0x00, 0x00, 0x00, 0x46, 
  
};
const unsigned int model_tflite_len = 14040;

#endif
